<pad>	0
<unk>	0
<s>	0
</s>	0
<S>	0
<U>	0
<TGT>	0
<END>	0
USER	0
<0x00>	0
<0x01>	0
<0x02>	0
<0x03>	0
<0x04>	0
<0x05>	0
<0x06>	0
<0x07>	0
<0x08>	0
<0x09>	0
<0x0A>	0
<0x0B>	0
<0x0C>	0
<0x0D>	0
<0x0E>	0
<0x0F>	0
<0x10>	0
<0x11>	0
<0x12>	0
<0x13>	0
<0x14>	0
<0x15>	0
<0x16>	0
<0x17>	0
<0x18>	0
<0x19>	0
<0x1A>	0
<0x1B>	0
<0x1C>	0
<0x1D>	0
<0x1E>	0
<0x1F>	0
<0x20>	0
<0x21>	0
<0x22>	0
<0x23>	0
<0x24>	0
<0x25>	0
<0x26>	0
<0x27>	0
<0x28>	0
<0x29>	0
<0x2A>	0
<0x2B>	0
<0x2C>	0
<0x2D>	0
<0x2E>	0
<0x2F>	0
<0x30>	0
<0x31>	0
<0x32>	0
<0x33>	0
<0x34>	0
<0x35>	0
<0x36>	0
<0x37>	0
<0x38>	0
<0x39>	0
<0x3A>	0
<0x3B>	0
<0x3C>	0
<0x3D>	0
<0x3E>	0
<0x3F>	0
<0x40>	0
<0x41>	0
<0x42>	0
<0x43>	0
<0x44>	0
<0x45>	0
<0x46>	0
<0x47>	0
<0x48>	0
<0x49>	0
<0x4A>	0
<0x4B>	0
<0x4C>	0
<0x4D>	0
<0x4E>	0
<0x4F>	0
<0x50>	0
<0x51>	0
<0x52>	0
<0x53>	0
<0x54>	0
<0x55>	0
<0x56>	0
<0x57>	0
<0x58>	0
<0x59>	0
<0x5A>	0
<0x5B>	0
<0x5C>	0
<0x5D>	0
<0x5E>	0
<0x5F>	0
<0x60>	0
<0x61>	0
<0x62>	0
<0x63>	0
<0x64>	0
<0x65>	0
<0x66>	0
<0x67>	0
<0x68>	0
<0x69>	0
<0x6A>	0
<0x6B>	0
<0x6C>	0
<0x6D>	0
<0x6E>	0
<0x6F>	0
<0x70>	0
<0x71>	0
<0x72>	0
<0x73>	0
<0x74>	0
<0x75>	0
<0x76>	0
<0x77>	0
<0x78>	0
<0x79>	0
<0x7A>	0
<0x7B>	0
<0x7C>	0
<0x7D>	0
<0x7E>	0
<0x7F>	0
<0x80>	0
<0x81>	0
<0x82>	0
<0x83>	0
<0x84>	0
<0x85>	0
<0x86>	0
<0x87>	0
<0x88>	0
<0x89>	0
<0x8A>	0
<0x8B>	0
<0x8C>	0
<0x8D>	0
<0x8E>	0
<0x8F>	0
<0x90>	0
<0x91>	0
<0x92>	0
<0x93>	0
<0x94>	0
<0x95>	0
<0x96>	0
<0x97>	0
<0x98>	0
<0x99>	0
<0x9A>	0
<0x9B>	0
<0x9C>	0
<0x9D>	0
<0x9E>	0
<0x9F>	0
<0xA0>	0
<0xA1>	0
<0xA2>	0
<0xA3>	0
<0xA4>	0
<0xA5>	0
<0xA6>	0
<0xA7>	0
<0xA8>	0
<0xA9>	0
<0xAA>	0
<0xAB>	0
<0xAC>	0
<0xAD>	0
<0xAE>	0
<0xAF>	0
<0xB0>	0
<0xB1>	0
<0xB2>	0
<0xB3>	0
<0xB4>	0
<0xB5>	0
<0xB6>	0
<0xB7>	0
<0xB8>	0
<0xB9>	0
<0xBA>	0
<0xBB>	0
<0xBC>	0
<0xBD>	0
<0xBE>	0
<0xBF>	0
<0xC0>	0
<0xC1>	0
<0xC2>	0
<0xC3>	0
<0xC4>	0
<0xC5>	0
<0xC6>	0
<0xC7>	0
<0xC8>	0
<0xC9>	0
<0xCA>	0
<0xCB>	0
<0xCC>	0
<0xCD>	0
<0xCE>	0
<0xCF>	0
<0xD0>	0
<0xD1>	0
<0xD2>	0
<0xD3>	0
<0xD4>	0
<0xD5>	0
<0xD6>	0
<0xD7>	0
<0xD8>	0
<0xD9>	0
<0xDA>	0
<0xDB>	0
<0xDC>	0
<0xDD>	0
<0xDE>	0
<0xDF>	0
<0xE0>	0
<0xE1>	0
<0xE2>	0
<0xE3>	0
<0xE4>	0
<0xE5>	0
<0xE6>	0
<0xE7>	0
<0xE8>	0
<0xE9>	0
<0xEA>	0
<0xEB>	0
<0xEC>	0
<0xED>	0
<0xEE>	0
<0xEF>	0
<0xF0>	0
<0xF1>	0
<0xF2>	0
<0xF3>	0
<0xF4>	0
<0xF5>	0
<0xF6>	0
<0xF7>	0
<0xF8>	0
<0xF9>	0
<0xFA>	0
<0xFB>	0
<0xFC>	0
<0xFD>	0
<0xFE>	0
<0xFF>	0
▁t	-0
▁i	-1
▁a	-2
ou	-3
in	-4
▁s	-5
on	-6
▁m	-7
re	-8
▁w	-9
▁y	-10
en	-11
▁you	-12
ing	-13
er	-14
▁b	-15
▁c	-16
es	-17
▁th	-18
at	-19
▁d	-20
ll	-21
▁h	-22
or	-23
▁p	-24
an	-25
▁l	-26
st	-27
▁f	-28
▁is	-29
▁an	-30
it	-31
et	-32
▁re	-33
▁the	-34
ti	-35
ar	-36
ro	-37
▁to	-38
▁and	-39
el	-40
▁me	-41
▁n	-42
ic	-43
al	-44
▁your	-45
▁o	-46
se	-47
▁do	-48
om	-49
▁I	-50
▁it	-51
▁wh	-52
▁g	-53
ra	-54
ke	-55
le	-56
ve	-57
ent	-58
▁st	-59
ce	-60
▁e	-61
ed	-62
ot	-63
ut	-64
ct	-65
▁on	-66
▁Y	-67
ay	-68
id	-69
▁You	-70
qu	-71
▁my	-72
▁what	-73
tion	-74
▁con	-75
▁for	-76
ff	-77
ow	-78
▁qu	-79
▁j	-80
▁in	-81
ly	-82
▁mo	-83
is	-84
all	-85
▁pl	-86
ri	-87
de	-88
il	-89
▁can	-90
▁lo	-91
▁ju	-92
as	-93
▁com	-94
ast	-95
▁T	-96
▁be	-97
▁just	-98
▁not	-99
▁ma	-100
ell	-101
pe	-102
▁ch	-103
ion	-104
▁one	-105
ver	-106
ck	-107
▁L	-108
ence	-109
ith	-110
▁with	-111
ess	-112
pl	-113
▁this	-114
est	-115
▁but	-116
idence	-117
▁li	-118
gh	-119
ick	-120
▁conf	-121
ine	-122
▁A	-123
end	-124
ad	-125
▁ro	-126
▁confidence	-127
▁(	-128
ter	-129
ul	-130
▁Your	-131
▁so	-132
im	-133
▁roast	-134
▁plan	-135
ght	-136
▁he	-137
ab	-138
▁bet	-139
▁how	-140
ch	-141
ss	-142
ase	-143
ment	-144
▁hel	-145
▁go	-146
lease	-147
vi	-148
▁ne	-149
ant	-150
▁u	-151
▁ha	-152
▁pro	-153
▁ex	-154
erg	-155
art	-156
▁that	-157
ork	-158
ep	-159
▁like	-160
▁please	-161
▁sm	-162
▁quick	-163
▁sh	-164
▁N	-165
ive	-166
▁bu	-167
▁tim	-168
▁R	-169
▁work	-170
ry	-171
ist	-172
ld	-173
▁better	-174
ning	-175
▁have	-176
▁ok	-177
ous	-178
ally	-179
ation	-180
▁rec	-181
un	-182
▁en	-183
▁hey	-184
estion	-185
▁are	-186
op	-187
▁som	-188
▁off	-189
▁of	-190
▁question	-191
▁ide	-192
ail	-193
ction	-194
▁O	-195
▁co	-196
eth	-197
▁want	-198
▁help	-199
▁le	-200
ts	-201
▁idea	-202
▁bo	-203
▁ta	-204
▁start	-205
▁S	-206
▁come	-207
▁tra	-208
ate	-209
▁time	-210
ious	-211
ap	-212
ir	-213
▁det	-214
▁small	-215
▁H	-216
▁ser	-217
▁serious	-218
ort	-219
ctu	-220
▁make	-221
ill	-222
right	-223
ack	-224
ergy	-225
▁energy	-226
..	-227
▁more	-228
▁W	-229
ain	-230
ering	-231
ity	-232
lright	-233
▁tell	-234
▁detail	-235
▁or	-236
ud	-237
hat	-238
ip	-239
plan	-240
lly	-241
▁lol	-242
▁pls	-243
▁all	-244
▁we	-245
▁yo	-246
▁as	-247
ob	-248
ren	-249
▁Alright	-250
▁br	-251
▁log	-252
ok	-253
▁need	-254
am	-255
ould	-256
▁3	-257
ond	-258
▁try	-259
▁1	-260
▁se	-261
▁lear	-262
od	-263
▁vi	-264
▁will	-265
▁over	-266
elf	-267
onest	-268
▁B	-269
▁should	-270
aw	-271
by	-272
iv	-273
obby	-274
fu	-275
ctions	-276
ense	-277
line	-278
▁hobby	-279
mb	-280
ol	-281
row	-282
itt	-283
out	-284
riend	-285
fully	-286
▁res	-287
▁=	-288
▁real	-289
▁bring	-290
ice	-291
one	-292
use	-293
ag	-294
king	-295
xt	-296
▁de	-297
▁give	-298
▁code	-299
▁step	-300
iz	-301
ething	-302
▁something	-303
pect	-304
isten	-305
▁+	-306
▁P	-307
▁actu	-308
▁actually	-309
ong	-310
▁G	-311
▁if	-312
kay	-313
▁Okay	-314
▁su	-315
▁than	-316
▁was	-317
▁/	-318
pectfully	-319
▁seriously	-320
▁stop	-321
▁2	-322
pp	-323
ru	-324
▁-	-325
cti	-326
▁spe	-327
▁Listen	-328
▁eff	-329
oun	-330
ful	-331
▁track	-332
▁vib	-333
th	-334
act	-335
▁Res	-336
▁Respectfully	-337
alk	-338
▁inst	-339
▁learn	-340
mor	-341
▁effort	-342
gg	-343
▁use	-344
itting	-345
du	-346
rit	-347
▁no	-348
▁ask	-349
kes	-350
▁Let	-351
oke	-352
▁Tell	-353
▁talk	-354
▁po	-355
▁resul	-356
▁take	-357
▁M	-358
udy	-359
▁study	-360
cc	-361
▁less	-362
▁doing	-363
▁by	-364
▁at	-365
▁went	-366
run	-367
tie	-368
▁bes	-369
▁bestie	-370
oud	-371
▁loud	-372
▁*	-373
▁al	-374
ori	-375
bh	-376
▁tbh	-377
day	-378
▁today	-379
ans	-380
eel	-381
▁self	-382
bl	-383
▁St	-384
▁vibes	-385
ten	-386
▁thing	-387
▁char	-388
▁goes	-389
▁buff	-390
running	-391
▁buffering	-392
acter	-393
▁acc	-394
▁friend	-395
▁character	-396
ord	-397
omm	-398
orm	-399
vie	-400
▁tri	-401
▁some	-402
▁4	-403
▁cho	-404
▁That	-405
abil	-406
▁sp	-407
awa	-408
ks	-409
▁when	-410
ca	-411
▁ab	-412
▁useful	-413
▁logic	-414
▁speed	-415
▁speedrunning	-416
▁D	-417
ability	-418
▁results	-419
...	-420
▁someone	-421
ffe	-422
ommend	-423
back	-424
▁Re	-425
▁k	-426
way	-427
▁post	-428
arra	-429
▁emb	-430
arrass	-431
arrassment	-432
▁embarrassment	-433
▁comeback	-434
awaren	-435
awareness	-436
▁did	-437
ount	-438
▁account	-439
▁offline	-440
▁late	-441
▁thanks	-442
▁recommend	-443
▁long	-444
▁du	-445
inut	-446
▁posting	-447
geth	-448
gether	-449
▁accountability	-450
ect	-451
cause	-452
ower	-453
▁explan	-454
▁explanation	-455
▁duct	-456
▁tape	-457
▁makes	-458
▁longer	-459
morrow	-460
▁tomorrow	-461
▁together	-462
▁sense	-463
▁mode	-464
▁rece	-465
ipts	-466
▁receipts	-467
▁held	-468
▁sl	-469
▁didn	-470
orial	-471
utorial	-472
▁air	-473
plane	-474
▁airplane	-475
▁lap	-476
ergic	-477
▁allergic	-478
▁F	-479
▁No	-480
ise	-481
▁wond	-482
▁wondering	-483
▁ad	-484
utorials	-485
▁back	-486
▁because	-487
▁5	-488
ac	-489
▁about	-490
▁choice	-491
▁up	-492
rain	-493
▁hid	-494
▁pu	-495
▁trying	-496
enti	-497
▁bold	-498
▁sti	-499
▁spir	-500
elp	-501
▁record	-502
rite	-503
vers	-504
▁giv	-505
▁has	-506
▁ref	-507
▁fun	-508
▁giving	-509
▁honest	-510
▁hi	-511
▁spirit	-512
▁don	-513
▁still	-514
ind	-515
▁7	-516
▁pot	-517
ential	-518
▁potential	-519
▁C	-520
▁hiding	-521
▁instru	-522
▁instructions	-523
ie	-524
▁fi	-525
▁pre	-526
▁9	-527
adj	-528
acent	-529
▁next	-530
adjacent	-531
▁comm	-532
▁tr	-533
▁8	-534
able	-535
elie	-536
elieve	-537
▁believe	-538
▁des	-539
▁6	-540
ore	-541
rea	-542
▁okay	-543
yway	-544
onestly	-545
▁Honestly	-546
▁buil	-547
▁Th	-548
▁won	-549
▁feel	-550
▁int	-551
▁sec	-552
amp	-553
help	-554
▁minut	-555
▁five	-556
▁vers	-557
▁version	-558
▁second	-559
▁sc	-560
▁minutes	-561
iny	-562
▁slower	-563
▁‘	-564
plain	-565
ight	-566
▁What	-567
be	-568
gu	-569
arm	-570
ely	-571
chine	-572
▁alarm	-573
▁fix	-574
pro	-575
▁ar	-576
lect	-577
▁reflect	-578
▁Not	-579
▁brain	-580
ens	-581
blic	-582
form	-583
▁public	-584
▁prob	-585
▁works	-586
inking	-587
▁going	-588
ically	-589
▁machine	-590
hing	-591
▁loss	-592
▁ra	-593
▁sa	-594
ining	-595
▁training	-596
▁say	-597
tiv	-598
▁seconds	-599
mm	-600
▁If	-601
▁fl	-602
asically	-603
▁built	-604
▁ace	-605
▁good	-606
▁ag	-607
▁again	-608
▁movie	-609
▁deser	-610
her	-611
ers	-612
ansform	-613
▁cont	-614
ray	-615
▁betray	-616
▁anyway	-617
▁deserve	-618
▁goal	-619
▁r	-620
▁brea	-621
▁nothing	-622
▁yours	-623
less	-624
sol	-625
▁di	-626
▁boss	-627
▁cry	-628
ress	-629
solut	-630
solutely	-631
red	-632
gging	-633
▁Want	-634
▁read	-635
▁gra	-636
umb	-637
▁main	-638
▁cl	-639
▁break	-640
▁raise	-641
▁crying	-642
ext	-643
fitting	-644
rent	-645
arning	-646
▁betrayed	-647
▁rem	-648
ansformer	-649
alent	-650
▁grow	-651
sist	-652
racti	-653
▁transformer	-654
del	-655
▁model	-656
ectu	-657
▁growth	-658
ently	-659
fferent	-660
tention	-661
▁basically	-662
▁different	-663
its	-664
▁Real	-665
▁reas	-666
quiv	-667
pping	-668
ectual	-669
▁equiv	-670
▁intell	-671
▁reason	-672
▁comment	-673
▁sections	-674
▁thinking	-675
▁tripping	-676
▁tutorials	-677
▁equivalent	-678
▁intellectual	-679
pt	-680
▁motiv	-681
ask	-682
▁Be	-683
▁flaw	-684
▁flawless	-685
inder	-686
▁reminder	-687
do	-688
abel	-689
▁label	-690
▁warning	-691
▁practi	-692
gued	-693
▁head	-694
▁argued	-695
▁online	-696
atch	-697
▁table	-698
over	-699
raud	-700
▁fraud	-701
▁committing	-702
▁steps	-703
▁smoke	-704
ably	-705
▁recover	-706
▁probably	-707
age	-708
ize	-709
▁took	-710
▁Im	-711
duce	-712
▁yourself	-713
▁why	-714
ci	-715
wh	-716
agine	-717
▁Imagine	-718
▁pick	-719
▁tiny	-720
▁may	-721
▁smallest	-722
▁champ	-723
▁joke	-724
gl	-725
vel	-726
▁task	-727
ession	-728
bu	-729
▁ngl	-730
ject	-731
▁offense	-732
▁Ab	-733
▁Absolutely	-734
ge	-735
▁us	-736
▁maybe	-737
gend	-738
▁legend	-739
ard	-740
▁Friend	-741
▁cook	-742
▁wa	-743
▁who	-744
▁attention	-745
▁consist	-746
▁exam	-747
ient	-748
ples	-749
▁examples	-750
og	-751
ree	-752
▁fast	-753
eed	-754
▁ev	-755
other	-756
▁another	-757
ide	-758
when	-759
▁learner	-760
▁motivation	-761
velop	-762
▁develop	-763
ated	-764
▁Need	-765
▁un	-766
▁asap	-767
▁Start	-768
▁mean	-769
▁write	-770
val	-771
▁per	-772
▁meet	-773
▁test	-774
▁stu	-775
▁conver	-776
▁project	-777
▁development	-778
▁em	-779
▁convert	-780
aN	-781
ure	-782
▁beat	-783
wn	-784
ought	-785
▁often	-786
us	-787
▁'	-788
▁let	-789
cl	-790
ome	-791
9.	-792
ead	-793
▁learning	-794
▁practice	-795
▁Do	-796
▁does	-797
▁thought	-798
▁fine	-799
▁explain	-800
tu	-801
ello	-802
▁sle	-803
▁consistent	-804
▁mi	-805
▁book	-806
are	-807
▁mut	-808
ete	-809
ult	-810
▁chan	-811
▁produ	-812
ai	-813
ating	-814
▁stay	-815
ron	-816
viron	-817
▁environ	-818
▁environment	-819
▁Friendly	-820
▁scre	-821
▁tip	-822
rong	-823
▁del	-824
▁prog	-825
▁delete	-826
▁ke	-827
▁ear	-828
▁conce	-829
ctive	-830
mmar	-831
aliz	-832
fore	-833
▁before	-834
olog	-835
dient	-836
▁debu	-837
▁begging	-838
▁progress	-839
um	-840
and	-841
▁get	-842
ere	-843
▁eat	-844
▁saf	-845
▁che	-846
ata	-847
cuse	-848
▁data	-849
ety	-850
▁doc	-851
▁sleep	-852
▁excuse	-853
▁muting	-854
▁safety	-855
▁concept	-856
▁three	-857
rtu	-858
rtual	-859
umble	-860
▁humble	-861
▁virtual	-862
wer	-863
▁ap	-864
▁wait	-865
▁jud	-866
15	-867
▁wow	-868
ho	-869
ggest	-870
▁suggest	-871
cles	-872
▁mira	-873
▁miracles	-874
14	-875
os	-876
ild	-877
▁NaN	-878
▁tests	-879
▁We	-880
▁quest	-881
roll	-882
▁pep	-883
▁overfitting	-884
ologize	-885
▁apologize	-886
ace	-887
anic	-888
aste	-889
▁judg	-890
▁gradient	-891
unch	-892
▁dec	-893
iles	-894
our	-895
vice	-896
▁Yes	-897
▁bug	-898
▁sim	-899
▁panic	-900
ously	-901
▁repro	-902
rid	-903
icul	-904
▁man	-905
ppens	-906
ridicul	-907
▁happens	-908
ridiculously	-909
▁stuck	-910
▁advice	-911
ur	-912
▁tried	-913
ble	-914
ove	-915
▁day	-916
valu	-917
▁then	-918
ny	-919
sent	-920
pport	-921
▁support	-922
ies	-923
sed	-924
▁set	-925
▁add	-926
▁gu	-927
▁prom	-928
aos	-929
▁chaos	-930
▁funny	-931
▁fro	-932
▁from	-933
▁bad	-934
▁mood	-935
▁meeting	-936
sentation	-937
view	-938
ittle	-939
▁lunch	-940
▁little	-941
▁keep	-942
▁instead	-943
▁Git	-944
▁kg	-945
▁lb	-946
ening	-947
you	-948
▁dra	-949
▁rew	-950
▁clar	-951
▁3.	-952
orit	-953
▁rep	-954
cra	-955
stin	-956
sult	-957
crastin	-958
▁Q	-959
key	-960
▁Qu	-961
▁π	-962
1415	-963
aily	-964
14159.	-965
▁3.14159.	-966
▁nan	-967
int	-968
▁tw	-969
▁In	-970
▁clarity	-971
▁mor	-972
▁comes	-973
▁morning	-974
▁session	-975
▁km	-976
▁perf	-977
▁hello	-978
▁miles	-979
▁git	-980
▁own	-981
▁This	-982
▁reduce	-983
▁questions	-984
▁bored	-985
sh	-986
▁way	-987
▁Please	-988
▁text	-989
▁procrastin	-990
kill	-991
▁insult	-992
err	-993
▁uses	-994
▁call	-995
▁reading	-996
▁10	-997
▁ans	-998
▁daily	-999
▁rewrite	-1000
get	-1001
put	-1002
▁presentation	-1003
now	-1004
ped	-1005
ctiv	-1006
eels	-1007
pedal	-1008
▁docs	-1009
▁know	-1010
ection	-1011
▁short	-1012
▁wheels	-1013
▁Tutorials	-1014
ound	-1015
▁norm	-1016
▁wild	-1017
aking	-1018
li	-1019
▁Pro	-1020
▁them	-1021
▁Stop	-1022
asy	-1023
▁Oh	-1024
oring	-1025
▁judgment	-1026
▁ten	-1027
▁chat	-1028
▁list	-1029
▁perfect	-1030
▁too	-1031
▁gradients	-1032
ose	-1033
ple	-1034
▁Gently	-1035
ched	-1036
▁Bro	-1037
▁memor	-1038
▁sched	-1039
rol	-1040
▁action	-1041
▁control	-1042
▁memoriz	-1043
place	-1044
values	-1045
▁check	-1046
▁→	-1047
▁scroll	-1048
▁Try	-1049
▁fa	-1050
lear	-1051
▁answer	-1052
ctivity	-1053
ft	-1054
ero	-1055
▁now	-1056
▁bus	-1057
▁Give	-1058
up	-1059
alization	-1060
▁debug	-1061
▁skill	-1062
0.	-1063
oding	-1064
▁Sure	-1065
▁doesn	-1066
fic	-1067
▁Low	-1068
▁normalization	-1069
▁pr	-1070
ping	-1071
▁calling	-1072
▁procrastinating	-1073
▁fore	-1074
▁forever	-1075
bot	-1076
▁tok	-1077
▁gets	-1078
▁move	-1079
▁chatbot	-1080
▁tips	-1081
▁memorizes	-1082
▁sound	-1083
▁E	-1084
▁high	-1085
▁part	-1086
▁email	-1087
▁context	-1088
▁repe	-1089
▁beats	-1090
▁print	-1091
▁here	-1092
▁evening	-1093
▁prep	-1094
ceed	-1095
rate	-1096
▁home	-1097
jection	-1098
▁details	-1099
apes	-1100
▁simple	-1101
▁grammar	-1102
▁fo	-1103
ision	-1104
otion	-1105
▁productivity	-1106
▁expl	-1107
PI	-1108
reat	-1109
▁API	-1110
▁exploding	-1111
▁Over	-1112
▁Overfitting	-1113
lier	-1114
▁earlier	-1115
2.	-1116
gy	-1117
uch	-1118
▁Much	-1119
rategy	-1120
terview	-1121
▁complain	-1122
▁strategy	-1123
▁op	-1124
ample	-1125
▁example	-1126
ne	-1127
▁J	-1128
▁lim	-1129
▁win	-1130
▁comed	-1131
▁liked	-1132
▁manage	-1133
▁change	-1134
▁Love	-1135
▁limits	-1136
▁timers	-1137
▁reality	-1138
▁management	-1139
▁z	-1140
come	-1141
▁Proceed	-1142
▁gen	-1143
▁screen	-1144
▁friends	-1145
ater	-1146
umbs	-1147
tions	-1148
▁rate	-1149
▁thumbs	-1150
▁replace	-1151
),	-1152
oti	-1153
ust	-1154
▁zero	-1155
ock	-1156
ype	-1157
▁fe	-1158
▁gently	-1159
▁skills	-1160
▁emotion	-1161
▁yes	-1162
▁waiting	-1163
▁af	-1164
ises	-1165
wers	-1166
▁shapes	-1167
▁must	-1168
▁after	-1169
▁promises	-1170
▁tone	-1171
▁writ	-1172
▁writing	-1173
ake	-1174
work	-1175
read	-1176
▁Con	-1177
▁timer	-1178
ig	-1179
ces	-1180
▁One	-1181
▁interview	-1182
▁tokens	-1183
ges	-1184
tend	-1185
▁new	-1186
▁There	-1187
▁Boring	-1188
tim	-1189
ired	-1190
sk	-1191
ates	-1192
▁Ask	-1193
▁ass	-1194
▁pri	-1195
per	-1196
▁Mind	-1197
▁vibe	-1198
▁watch	-1199
▁weight	-1200
▁Mindful	-1201
▁priorit	-1202
ek	-1203
ted	-1204
▁cal	-1205
block	-1206
▁cooking	-1207
▁priorities	-1208
ories	-1209
▁reprodu	-1210
▁stories	-1211
ite	-1212
▁It	-1213
▁sequ	-1214
▁input	-1215
▁30	-1216
▁An	-1217
cible	-1218
▁Pick	-1219
▁reproducible	-1220
▁changes	-1221
▁rejection	-1222
4.	-1223
▁exist	-1224
8.	-1225
▁te	-1226
arch	-1227
▁pretend	-1228
6.	-1229
ines	-1230
▁tired	-1231
if	-1232
▁Tiny	-1233
fession	-1234
fessional	-1235
▁Quick	-1236
▁paste	-1237
▁forget	-1238
rop	-1239
▁dep	-1240
▁depend	-1241
3.	-1242
res	-1243
yth	-1244
ding	-1245
▁err	-1246
▁neg	-1247
▁isol	-1248
▁error	-1249
▁coding	-1250
ark	-1251
ery	-1252
▁asser	-1253
▁assertions	-1254
▁LR	-1255
▁Li	-1256
▁bully	-1257
he	-1258
ism	-1259
▁bot	-1260
▁early	-1261
▁guess	-1262
▁negoti	-1263
ences	-1264
inute	-1265
minute	-1266
▁friendly	-1267
7.	-1268
ian	-1269
ish	-1270
▁rese	-1271
▁result	-1272
▁research	-1273
▁sequences	-1274
▁fits	-1275
▁mess	-1276
▁Paste	-1277
▁Co	-1278
▁reply	-1279
▁emotional	-1280
ory	-1281
itch	-1282
ach	-1283
▁Sp	-1284
affe	-1285
ython	-1286
affeine	-1287
▁comedian	-1288
▁Red	-1289
▁pitch	-1290
▁wrong	-1291
▁startup	-1292
air	-1293
ings	-1294
▁into	-1295
▁share	-1296
cus	-1297
lev	-1298
ance	-1299
cies	-1300
ailor	-1301
▁clip	-1302
encies	-1303
▁match	-1304
▁relev	-1305
▁toast	-1306
▁tailor	-1307
▁things	-1308
▁dependencies	-1309
4?	-1310
▁Go	-1311
▁bugs	-1312
oin	-1313
▁mat	-1314
▁out	-1315
anch	-1316
endar	-1317
▁Side	-1318
▁calendar	-1319
uling	-1320
▁role	-1321
inging	-1322
answers	-1323
▁scheduling	-1324
ms	-1325
▁reproduce	-1326
▁bro	-1327
ting	-1328
▁professional	-1329
ame	-1330
▁Like	-1331
▁shall	-1332
5.	-1333
9?	-1334
▁isolates	-1335
no	-1336
▁clear	-1337
▁focus	-1338
fe	-1339
▁Take	-1340
▁productive	-1341
1.	-1342
host	-1343
▁down	-1344
▁ghost	-1345
▁proble	-1346
▁evidence	-1347
▁easy	-1348
▁super	-1349
Winging	-1350
▁16	-1351
ompl	-1352
vage	-1353
▁upd	-1354
entum	-1355
▁busy	-1356
▁story	-1357
omentum	-1358
▁savage	-1359
sp	-1360
ints	-1361
▁tru	-1362
▁matter	-1363
▁alright	-1364
ves	-1365
▁12	-1366
ward	-1367
▁cra	-1368
▁hard	-1369
si	-1370
play	-1371
▁gener	-1372
▁lower	-1373
ivision	-1374
▁points	-1375
cy	-1376
▁How	-1377
▁gain	-1378
▁ideas	-1379
lot	-1380
roy	-1381
▁Le	-1382
elsi	-1383
heit	-1384
hren	-1385
▁dest	-1386
elsius	-1387
ropout	-1388
▁twist	-1389
▁fahren	-1390
▁celsius	-1391
▁destroy	-1392
▁fahrenheit	-1393
vo	-1394
ffic	-1395
▁act	-1396
▁Brea	-1397
▁news	-1398
▁Breaking	-1399
ually	-1400
alizing	-1401
▁choose	-1402
▁generalizing	-1403
bles	-1404
▁Cool	-1405
▁doom	-1406
▁trou	-1407
playfully	-1408
▁caffeine	-1409
▁troubles	-1410
ruly	-1411
▁Truly	-1412
▁studying	-1413
▁debugging	-1414
compl	-1415
icate	-1416
complicate	-1417
▁overcomplicate	-1418
ma	-1419
uce	-1420
▁two	-1421
▁lose	-1422
▁draft	-1423
▁there	-1424
▁python	-1425
ages	-1426
aming	-1427
▁susp	-1428
ressed	-1429
▁Reduce	-1430
▁message	-1431
▁stressed	-1432
▁suspense	-1433
▁tracking	-1434
▁25	-1435
▁fin	-1436
▁net	-1437
▁Main	-1438
▁optim	-1439
▁network	-1440
ural	-1441
▁decay	-1442
▁Anyway	-1443
▁neural	-1444
app	-1445
ume	-1446
andom	-1447
▁random	-1448
▁resume	-1449
▁respectfully	-1450
).	-1451
angu	-1452
hero	-1453
▁bed	-1454
▁lies	-1455
▁const	-1456
▁langu	-1457
▁smell	-1458
▁traffic	-1459
▁superhero	-1460
blem	-1461
▁Hot	-1462
▁rout	-1463
onight	-1464
raints	-1465
▁Hello	-1466
problem	-1467
▁commit	-1468
▁usually	-1469
▁constraints	-1470
▁13	-1471
wing	-1472
ations	-1473
▁strong	-1474
appy	-1475
▁Happy	-1476
▁branch	-1477
▁summar	-1478
▁14	-1479
▁wel	-1480
▁welcome	-1481
▁summarize	-1482
ary	-1483
▁(5	-1484
▁Fair	-1485
▁merg	-1486
▁likes	-1487
▁speaking	-1488
te	-1489
▁ent	-1490
▁enter	-1491
▁promise	-1492
▁momentum	-1493
▁(8	-1494
ored	-1495
▁Plot	-1496
▁love	-1497
▁stopping	-1498
prop	-1499
▁May	-1500
▁save	-1501
▁word	-1502
▁speci	-1503
8?	-1504
cal	-1505
ribe	-1506
▁Cons	-1507
▁conc	-1508
istency	-1509
▁meetings	-1510
▁practical	-1511
▁Consistency	-1512
2?	-1513
8)	-1514
▁24	-1515
void	-1516
istra	-1517
▁join	-1518
▁teach	-1519
▁overth	-1520
▁matters	-1521
▁division	-1522
▁languages	-1523
▁overthinking	-1524
1?	-1525
▁hab	-1526
▁best	-1527
▁hate	-1528
5?	-1529
ue	-1530
▁(3	-1531
▁val	-1532
▁show	-1533
▁Noted	-1534
▁valid	-1535
▁tonight	-1536
▁backprop	-1537
▁optimism	-1538
hoot	-1539
ship	-1540
▁honesty	-1541
▁routine	-1542
▁relevance	-1543
▁troubleshoot	-1544
rn	-1545
urn	-1546
vorit	-1547
▁update	-1548
7?	-1549
ati	-1550
▁(2	-1551
▁nice	-1552
▁fewer	-1553
▁problems	-1554
llow	-1555
rive	-1556
udge	-1557
andle	-1558
entle	-1559
▁comp	-1560
▁nudge	-1561
▁gentle	-1562
▁handle	-1563
▁toward	-1564
▁guesses	-1565
▁forgetting	-1566
1)	-1567
7)	-1568
▁K	-1569
qui	-1570
▁(4	-1571
▁el	-1572
ness	-1573
▁mes	-1574
▁takes	-1575
▁water	-1576
▁messed	-1577
bo	-1578
imal	-1579
ther	-1580
▁Hmm	-1581
▁min	-1582
▁und	-1583
▁wake	-1584
▁words	-1585
▁minimal	-1586
▁(9	-1587
iction	-1588
):	-1589
▁(6	-1590
▁arc	-1591
fiction	-1592
▁refine	-1593
tern	-1594
▁unm	-1595
▁note	-1596
taking	-1597
▁build	-1598
6?	-1599
ern	-1600
ifi	-1601
▁Sm	-1602
▁im	-1603
tain	-1604
▁fan	-1605
▁non	-1606
▁tou	-1607
▁days	-1608
▁wifi	-1609
▁Small	-1610
▁whole	-1611
errated	-1612
▁review	-1613
▁workout	-1614
▁entertain	-1615
▁underrated	-1616
3)	-1617
6)	-1618
hy	-1619
ich	-1620
led	-1621
▁29	-1622
ffee	-1623
▁fit	-1624
▁coffee	-1625
▁fitness	-1626
▁specific	-1627
-5	-1628
0)	-1629
3?	-1630
ute	-1631
▁3-5	-1632
iness	-1633
orter	-1634
▁Clear	-1635
▁business	-1636
ailed	-1637
icted	-1638
▁Pati	-1639
▁room	-1640
▁tool	-1641
▁tour	-1642
▁habit	-1643
▁timel	-1644
ternate	-1645
▁decide	-1646
▁schedu	-1647
▁shorter	-1648
▁Patience	-1649
▁addicted	-1650
▁detailed	-1651
▁alternate	-1652
ile	-1653
▁19	-1654
pler	-1655
▁desig	-1656
▁simpler	-1657
▁negotiate	-1658
▁absolutely	-1659
0?	-1660
sc	-1661
apt	-1662
ner	-1663
▁(0	-1664
list	-1665
oney	-1666
▁turn	-1667
scroll	-1668
▁Strong	-1669
▁actions	-1670
scrolling	-1671
▁schedule	-1672
▁checklist	-1673
▁doomscrolling	-1674
4)	-1675
▁11	-1676
ading	-1677
ritic	-1678
▁type	-1679
▁batch	-1680
▁inner	-1681
▁critic	-1682
5)	-1683
▁15	-1684
▁week	-1685
ightly	-1686
▁exists	-1687
▁screens	-1688
▁without	-1689
▁hum	-1690
▁wins	-1691
▁avoid	-1692
▁creat	-1693
ctional	-1694
▁Starting	-1695
▁functional	-1696
▁presentations	-1697
ggs	-1698
▁oh	-1699
vent	-1700
▁dead	-1701
▁eggs	-1702
▁adapt	-1703
▁drama	-1704
▁means	-1705
▁favorit	-1706
▁designing	-1707
ey	-1708
rat	-1709
top	-1710
▁Of	-1711
erned	-1712
ourse	-1713
▁Good	-1714
▁pain	-1715
▁true	-1716
▁Spite	-1717
▁bribe	-1718
▁course	-1719
▁finish	-1720
▁laptop	-1721
▁shorten	-1722
▁slightly	-1723
▁concerned	-1724
2)	-1725
▁Tr	-1726
▁Mmm	-1727
▁hype	-1728
▁where	-1729
▁distra	-1730
▁commits	-1731
▁branches	-1732
eng	-1733
igh	-1734
ength	-1735
▁Then	-1736
▁rice	-1737
▁cheer	-1738
▁merges	-1739
9)	-1740
rap	-1741
wes	-1742
ument	-1743
▁moon	-1744
▁owes	-1745
▁money	-1746
▁contact	-1747
▁document	-1748
▁repeating	-1749
▁timelines	-1750
ak	-1751
ef	-1752
▁V	-1753
arn	-1754
stery	-1755
▁Learn	-1756
▁later	-1757
▁insist	-1758
▁weigh	-1759
▁confuse	-1760
▁screaming	-1761
ode	-1762
▁(7	-1763
▁23	-1764
▁At	-1765
code	-1766
otiv	-1767
▁Rem	-1768
▁motivated	-1769
▁U	-1770
lam	-1771
boot	-1772
lamor	-1773
▁Effe	-1774
▁life	-1775
▁Glamor	-1776
▁reboot	-1777
▁weekly	-1778
▁judging	-1779
▁toaster	-1780
▁clipping	-1781
▁creative	-1782
▁sessions	-1783
▁Effective	-1784
▁Glamorous	-1785
▁“	-1786
▁33	-1787
▁ru	-1788
▁done	-1789
etit	-1790
▁sol	-1791
▁away	-1792
▁18	-1793
▁28	-1794
▁Hi	-1795
▁job	-1796
▁rest	-1797
▁send	-1798
▁sending	-1799
▁interviews	-1800
ouse	-1801
▁Hey	-1802
unted	-1803
▁Here	-1804
▁look	-1805
▁Three	-1806
▁guide	-1807
▁house	-1808
▁light	-1809
▁Dropout	-1810
▁haunted	-1811
▁(1	-1812
▁sent	-1813
▁mystery	-1814
▁sentence	-1815
▁documentary	-1816
▁forg	-1817
ram	-1818
▁42	-1819
▁ve	-1820
uture	-1821
▁testing	-1822
▁confused	-1823
▁Attention	-1824
NaN	-1825
gin	-1826
▁20	-1827
▁Sh	-1828
▁ate	-1829
value	-1830
▁loop	-1831
▁begin	-1832
▁listen	-1833
▁sounds	-1834
▁stings	-1835
▁90	-1836
▁fu	-1837
tein	-1838
▁Cho	-1839
▁Nat	-1840
▁Choose	-1841
▁Remove	-1842
▁length	-1843
ebu	-1844
▁17	-1845
▁38	-1846
▁Debu	-1847
▁brut	-1848
▁elite	-1849
▁which	-1850
▁brutally	-1851
ura	-1852
▁27	-1853
▁Bad	-1854
ready	-1855
▁fight	-1856
▁inputs	-1857
▁already	-1858
bt	-1859
▁43	-1860
▁sn	-1861
ways	-1862
▁dry	-1863
▁wet	-1864
▁Help	-1865
ective	-1866
roduce	-1867
urally	-1868
▁Right	-1869
▁always	-1870
▁Basically	-1871
▁Debugging	-1872
▁Naturally	-1873
▁ah	-1874
iest	-1875
allen	-1876
ratul	-1877
▁coll	-1878
▁name	-1879
▁ahead	-1880
▁helper	-1881
ratulations	-1882
▁22	-1883
▁26	-1884
▁am	-1885
▁lets	-1886
alking	-1887
▁would	-1888
▁comput	-1889
▁drawing	-1890
so	-1891
▁boring	-1892
sle	-1893
aced	-1894
▁dad	-1895
slept	-1896
▁pers	-1897
▁become	-1898
▁follow	-1899
▁forgot	-1900
▁recall	-1901
▁repeated	-1902
▁overslept	-1903
▁31	-1904
▁chess	-1905
▁collect	-1906
▁favorite	-1907
▁Friendship	-1908
▁21	-1909
▁Use	-1910
▁tar	-1911
ggies	-1912
▁quiz	-1913
etition	-1914
▁target	-1915
▁repetition	-1916
av	-1917
ev	-1918
▁39	-1919
▁75	-1920
▁ph	-1921
oded	-1922
▁Now	-1923
▁full	-1924
▁while	-1925
ics	-1926
alad	-1927
▁10‐	-1928
coded	-1929
ultit	-1930
▁even	-1931
▁salad	-1932
fort	-1933
▁mis	-1934
raphy	-1935
▁resp	-1936
▁comfort	-1937
▁negotiating	-1938
me	-1939
▁37	-1940
▁Rep	-1941
▁fru	-1942
▁plot	-1943
▁loves	-1944
▁stress	-1945
▁Reading	-1946
▁protein	-1947
▁Reproduce	-1948
em	-1949
ipp	-1950
▁34	-1951
▁44	-1952
▁47	-1953
▁49	-1954
▁cut	-1955
▁tin	-1956
ippet	-1957
▁cong	-1958
▁touch	-1959
allenge	-1960
▁fiction	-1961
▁respond	-1962
▁snippet	-1963
▁tiniest	-1964
▁congratulations	-1965
ux	-1966
▁Dad	-1967
▁genre	-1968
▁decision	-1969
ution	-1970
▁dark	-1971
▁noise	-1972
▁making	-1973
▁repeat	-1974
ked	-1975
til	-1976
▁45	-1977
▁79	-1978
▁Tim	-1979
▁Stack	-1980
▁requi	-1981
▁until	-1982
▁deadline	-1983
.”	-1984
ret	-1985
rnt	-1986
rou	-1987
ansl	-1988
▁imp	-1989
▁rein	-1990
▁suit	-1991
▁Bored	-1992
▁burnt	-1993
▁humans	-1994
▁watched	-1995
▁compress	-1996
▁reinvent	-1997
▁48	-1998
▁50	-1999
▁85	-2000
oday	-2001
shed	-2002
▁wor	-2003
▁also	-2004
▁feat	-2005
▁hour	-2006
▁Today	-2007
▁other	-2008
▁future	-2009
▁pushed	-2010
▁veggies	-2011
gex	-2012
str	-2013
upy	-2014
▁1)	-2015
▁2)	-2016
▁3)	-2017
▁35	-2018
time	-2019
▁Lin	-2020
▁The	-2021
▁anx	-2022
▁key	-2023
▁tab	-2024
▁Jupy	-2025
▁flav	-2026
▁regex	-2027
strated	-2028
▁Jupyter	-2029
▁anxious	-2030
▁prepare	-2031
▁flavored	-2032
▁frustrated	-2033
ass	-2034
ink	-2035
▁36	-2036
▁40	-2037
▁74	-2038
ague	-2039
oted	-2040
query	-2041
asking	-2042
▁person	-2043
▁values	-2044
ultitasking	-2045
zy	-2046
▁🙂	-2047
▁41	-2048
▁53	-2049
▁64	-2050
▁96	-2051
▁My	-2052
▁far	-2053
▁had	-2054
▁Dark	-2055
▁both	-2056
▁crazy	-2057
▁feels	-2058
▁stuff	-2059
▁v	-2060
don	-2061
▁54	-2062
▁83	-2063
apon	-2064
pick	-2065
▁fant	-2066
▁drive	-2067
▁panics	-2068
▁weapon	-2069
▁weights	-2070
🧠🧠	-2071
▁59	-2072
▁69	-2073
▁77	-2074
mail	-2075
▁Com	-2076
▁mix	-2077
ative	-2078
▁Stress	-2079
otivated	-2080
▁planning	-2081
▁commitment	-2082
▁unmotivated	-2083
▁32	-2084
▁91	-2085
▁99	-2086
▁lot	-2087
▁Write	-2088
▁dropout	-2089
ON	-2090
SON	-2091
chn	-2092
pid	-2093
▁63	-2094
okes	-2095
▁JSON	-2096
▁Joke	-2097
▁files	-2098
▁notes	-2099
▁stupid	-2100
▁consistently	-2101
fto	-2102
▁57	-2103
▁71	-2104
▁98	-2105
▁Br	-2106
easy	-2107
oubt	-2108
then	-2109
turn	-2110
▁Set	-2111
▁fir	-2112
▁isn	-2113
ments	-2114
voted	-2115
▁thri	-2116
▁doubt	-2117
▁lefto	-2118
rements	-2119
▁return	-2120
▁outvoted	-2121
▁leftovers	-2122
▁requirements	-2123
ict	-2124
▁46	-2125
▁65	-2126
▁80	-2127
case	-2128
enef	-2129
igin	-2130
mark	-2131
▁see	-2132
ality	-2133
▁rude	-2134
▁trip	-2135
▁unit	-2136
iginal	-2137
▁benef	-2138
▁decor	-2139
▁first	-2140
▁swing	-2141
▁tight	-2142
▁turns	-2143
▁unmute	-2144
▁usable	-2145
▁boredom	-2146
▁fixable	-2147
▁benefits	-2148
▁bookmark	-2149
▁original	-2150
▁suitcase	-2151
▁decorative	-2152
▁personality	-2153
fi	-2154
aga	-2155
▁78	-2156
cial	-2157
ures	-2158
▁sci	-2159
lines	-2160
▁saga	-2161
▁side	-2162
▁slept	-2163
anslate	-2164
▁features	-2165
▁workplace	-2166
eet	-2167
▁61	-2168
▁62	-2169
shes	-2170
wise	-2171
▁ver	-2172
redit	-2173
▁open	-2174
▁seek	-2175
▁tabs	-2176
▁Other	-2177
▁credit	-2178
▁spaced	-2179
▁Boredom	-2180
▁crashes	-2181
▁computes	-2182
▁Otherwise	-2183
▁collector	-2184
chy	-2185
med	-2186
▁Ah	-2187
etly	-2188
▁pip	-2189
▁Quiz	-2190
▁crun	-2191
▁fact	-2192
▁trait	-2193
quietly	-2194
reading	-2195
▁comedy	-2196
▁crunchy	-2197
▁solution	-2198
▁thanking	-2199
ody	-2200
▁51	-2201
▁56	-2202
▁58	-2203
▁67	-2204
▁89	-2205
▁94	-2206
whel	-2207
light	-2208
obody	-2209
quest	-2210
ssure	-2211
▁Conf	-2212
▁broke	-2213
▁stand	-2214
whelmed	-2215
▁helpful	-2216
▁pressure	-2217
▁Confidence	-2218
▁overwhelmed	-2219
ax	-2220
yT	-2221
▁66	-2222
▁88	-2223
▁95	-2224
▁pe	-2225
orch	-2226
rime	-2227
stly	-2228
▁PyT	-2229
▁clu	-2230
▁dis	-2231
▁APIs	-2232
▁fail	-2233
▁Linux	-2234
▁crime	-2235
▁trust	-2236
▁PyTorch	-2237
▁fantasy	-2238
▁walking	-2239
▁detective	-2240
▁73	-2241
▁81	-2242
▁rel	-2243
works	-2244
▁Gmail	-2245
▁clues	-2246
▁picks	-2247
▁repre	-2248
▁missed	-2249
▁representation	-2250
df	-2251
to	-2252
ave	-2253
uth	-2254
▁52	-2255
▁70	-2256
▁72	-2257
▁97	-2258
itar	-2259
ople	-2260
owed	-2261
▁Rec	-2262
arter	-2263
axing	-2264
prove	-2265
▁Hard	-2266
▁effic	-2267
▁great	-2268
▁jokes	-2269
▁truth	-2270
evening	-2271
▁guitar	-2272
▁people	-2273
plaining	-2274
▁allowed	-2275
▁relevant	-2276
▁hardcoded	-2277
▁Complaining	-2278
▁representations	-2279
DA	-2280
eg	-2281
ik	-2282
▁😅	-2283
Tok	-2284
UDA	-2285
▁84	-2286
▁86	-2287
eleg	-2288
rave	-2289
▁Tik	-2290
aware	-2291
patch	-2292
perly	-2293
▁CUDA	-2294
▁Repe	-2295
▁logs	-2296
▁Share	-2297
▁Teleg	-2298
▁exact	-2299
▁techn	-2300
▁TikTok	-2301
▁Telegram	-2302
▁properly	-2303
▁environments	-2304
we	-2305
eep	-2306
▁76	-2307
▁Fo	-2308
▁put	-2309
apter	-2310
▁Keep	-2311
▁care	-2312
▁Fiction	-2313
▁chapter	-2314
▁smarter	-2315
▁distractions	-2316
▁60	-2317
▁87	-2318
roup	-2319
▁top	-2320
roast	-2321
▁mute	-2322
▁group	-2323
▁inform	-2324
▁improve	-2325
▁restless	-2326
▁Rejection	-2327
▁distraction	-2328
▁information	-2329
ec	-2330
▁Sy	-2331
dict	-2332
reet	-2333
jects	-2334
▁Greet	-2335
▁never	-2336
▁token	-2337
▁builds	-2338
▁effici	-2339
▁gaming	-2340
▁social	-2341
projects	-2342
▁running	-2343
▁verdict	-2344
ansformers	-2345
▁Greetings	-2346
▁Transformers	-2347
–3	-2348
idy	-2349
▁55	-2350
ades	-2351
cing	-2352
▁Time	-2353
▁ever	-2354
▁tidy	-2355
▁active	-2356
▁instability	-2357
)?	-2358
clu	-2359
sue	-2360
like	-2361
peak	-2362
build	-2363
▁Join	-2364
▁Text	-2365
▁gard	-2366
▁phot	-2367
▁Speak	-2368
▁issue	-2369
▁baking	-2370
▁motion	-2371
building	-2372
▁gardening	-2373
▁multitasking	-2374
2°	-2375
▁93	-2376
ough	-2377
stag	-2378
▁Pre	-2379
▁par	-2380
sheet	-2381
entally	-2382
stagram	-2383
▁spread	-2384
challenge	-2385
▁feelings	-2386
▁Instagram	-2387
▁spreadsheet	-2388
?’	-2389
ya	-2390
gra	-2391
ipe	-2392
vis	-2393
▁68	-2394
What	-2395
usic	-2396
yone	-2397
▁Gra	-2398
skill	-2399
visit	-2400
▁asked	-2401
▁human	-2402
▁music	-2403
▁recipe	-2404
▁revisit	-2405
▁avoidable	-2406
▁emotionally	-2407
db	-2408
za	-2409
imm	-2410
ood	-2411
▁sw	-2412
izza	-2413
ogle	-2414
imming	-2415
▁Drive	-2416
▁pizza	-2417
ography	-2418
▁Google	-2419
▁swimming	-2420
▁photography	-2421
0°	-2422
12	-2423
67	-2424
ea	-2425
ty	-2426
lex	-2427
ror	-2428
▁-2	-2429
▁Ev	-2430
urat	-2431
ving	-2432
▁cor	-2433
aling	-2434
ities	-2435
▁gave	-2436
▁ruin	-2437
▁used	-2438
ipient	-2439
▁craft	-2440
▁vague	-2441
urately	-2442
▁hiking	-2443
▁Translate	-2444
▁deadlines	-2445
▁accurately	-2446
8°	-2447
Tu	-2448
fy	-2449
hi	-2450
▁X	-2451
▁{	-2452
ana	-2453
ses	-2454
son	-2455
▁92	-2456
▁pi	-2457
Tube	-2458
ical	-2459
ourn	-2460
otify	-2461
▁json	-2462
▁Motiv	-2463
▁journ	-2464
▁speak	-2465
▁Spotify	-2466
▁YouTube	-2467
▁loading	-2468
▁Motivation	-2469
▁journaling	-2470
bc	-2471
dd	-2472
rp	-2473
ial	-2474
les	-2475
▁Gu	-2476
cast	-2477
▁reg	-2478
▁sil	-2479
night	-2480
ommit	-2481
rpose	-2482
▁anim	-2483
▁only	-2484
▁slow	-2485
▁walk	-2486
essing	-2487
▁mixes	-2488
▁world	-2489
because	-2490
▁Active	-2491
▁Commit	-2492
▁problem	-2493
▁purpose	-2494
▁Guessing	-2495
▁animation	-2496
07	-2497
ae	-2498
jo	-2499
ug	-2500
ats	-2501
joy	-2502
ual	-2503
▁-3	-2504
▁82	-2505
▁Ro	-2506
cker	-2507
▁calm	-2508
▁noti	-2509
odcast	-2510
▁enjoy	-2511
▁point	-2512
▁sport	-2513
igraphy	-2514
ressive	-2515
▁Docker	-2516
▁topics	-2517
▁Evidence	-2518
▁calligraphy	-2519
'.	-2520
04	-2521
60	-2522
6°	-2523
dit	-2524
ems	-2525
▁Op	-2526
enre	-2527
erge	-2528
gred	-2529
ying	-2530
▁1–3	-2531
▁Bet	-2532
ients	-2533
stems	-2534
▁they	-2535
▁Genre	-2536
▁Match	-2537
▁Merge	-2538
▁fades	-2539
▁tough	-2540
estions	-2541
▁Better	-2542
▁Branch	-2543
▁Follow	-2544
▁normal	-2545
▁Systems	-2546
▁enjoyed	-2547
gredients	-2548
▁Questions	-2549
▁efficiently	-2550
44	-2551
88	-2552
fa	-2553
aby	-2554
cco	-2555
mpt	-2556
▁-4	-2557
▁Al	-2558
▁Or	-2559
that	-2560
uses	-2561
ayers	-2562
ccoon	-2563
fused	-2564
▁Cong	-2565
▁baby	-2566
▁clap	-2567
▁cute	-2568
▁meal	-2569
▁same	-2570
▁Lunch	-2571
▁Python	-2572
▁Reddit	-2573
▁invent	-2574
▁raccoon	-2575
95	-2576
ng	-2577
how	-2578
▁Bo	-2579
▁VS	-2580
▁pol	-2581
▁sup	-2582
▁Code	-2583
▁area	-2584
▁refu	-2585
▁Treat	-2586
▁fails	-2587
▁looks	-2588
▁merge	-2589
▁young	-2590
▁nobody	-2591
▁quests	-2592
▁reward	-2593
▁letting	-2594
▁Confused	-2595
▁activity	-2596
▁thoughtful	-2597
▁procrastination	-2598
00	-2599
73	-2600
93	-2601
▁🧠🧠	-2602
airs	-2603
fine	-2604
ller	-2605
oned	-2606
▁64?	-2607
▁Why	-2608
▁🧠🧠🧠	-2609
usion	-2610
▁Prep	-2611
▁fell	-2612
▁ride	-2613
▁Great	-2614
▁accid	-2615
▁class	-2616
▁think	-2617
respect	-2618
▁remove	-2619
▁stairs	-2620
▁notific	-2621
▁request	-2622
▁roasted	-2623
▁talking	-2624
ectionism	-2625
▁thriller	-2626
▁challenge	-2627
▁decisions	-2628
▁disrespect	-2629
▁accidentally	-2630
4°	-2631
71	-2632
dc	-2633
cle	-2634
cre	-2635
andw	-2636
▁cir	-2637
▁squ	-2638
▁sur	-2639
▁Next	-2640
▁Scre	-2641
▁Wake	-2642
▁adult	-2643
▁parts	-2644
▁sandw	-2645
▁circle	-2646
▁mostly	-2647
▁regret	-2648
▁square	-2649
roasting	-2650
▁Screens	-2651
▁Caffeine	-2652
▁Gradient	-2653
▁Learning	-2654
▁everyone	-2655
▁sandwich	-2656
77	-2657
ee	-2658
isc	-2659
yle	-2660
▁-1	-2661
acks	-2662
arim	-2663
▁bas	-2664
▁cou	-2665
▁run	-2666
▁Disc	-2667
▁died	-2668
▁flex	-2669
▁Karim	-2670
▁books	-2671
▁night	-2672
machine	-2673
▁basics	-2674
▁couple	-2675
▁Discord	-2676
▁convers	-2677
▁standard	-2678
▁Rereading	-2679
▁favorites	-2680
▁confession	-2681
34	-2682
64	-2683
Kat	-2684
▁-7	-2685
▁Su	-2686
ator	-2687
five	-2688
your	-2689
▁Kit	-2690
▁ads	-2691
▁Drop	-2692
▁elev	-2693
▁hero	-2694
▁many	-2695
▁once	-2696
▁suff	-2697
▁told	-2698
▁using	-2699
▁Summar	-2700
▁needed	-2701
▁answers	-2702
▁compile	-2703
▁isolate	-2704
▁thrives	-2705
▁computer	-2706
▁elevator	-2707
▁relaxing	-2708
▁starting	-2709
▁versions	-2710
▁Recipient	-2711
▁logically	-2712
▁memorizing	-2713
19	-2714
28	-2715
66	-2716
75	-2717
98	-2718
aa	-2719
cd	-2720
fd	-2721
sA	-2722
col	-2723
gag	-2724
▁dr	-2725
alid	-2726
cess	-2727
enty	-2728
hard	-2729
sApp	-2730
ween	-2731
▁240	-2732
▁Fun	-2733
▁ban	-2734
▁cap	-2735
▁end	-2736
▁rom	-2737
gaged	-2738
ising	-2739
tocol	-2740
▁Tone	-2741
▁debt	-2742
▁hiya	-2743
▁pref	-2744
coding	-2745
▁Vague	-2746
▁Valid	-2747
▁brave	-2748
▁dread	-2749
▁drink	-2750
▁loses	-2751
▁might	-2752
▁power	-2753
▁their	-2754
▁Notion	-2755
▁Shapes	-2756
▁banana	-2757
▁shines	-2758
▁tracks	-2759
▁twenty	-2760
▁between	-2761
▁capabil	-2762
▁engaged	-2763
▁raising	-2764
▁romance	-2765
▁suffers	-2766
hardcoded	-2767
▁WhatsApp	-2768
▁protocol	-2769
▁standards	-2770
▁technical	-2771
▁Validation	-2772
▁hardcoding	-2773
▁Professional	-2774
▁capabilities	-2775
23	-2776
43	-2777
ix	-2778
ara	-2779
esy	-2780
oss	-2781
rib	-2782
Work	-2783
aped	-2784
grav	-2785
ible	-2786
noun	-2787
tell	-2788
▁10-	-2789
▁cur	-2790
▁pus	-2791
▁saw	-2792
Works	-2793
ccess	-2794
cribe	-2795
icken	-2796
ither	-2797
retty	-2798
▁Mood	-2799
▁anti	-2800
rently	-2801
ribute	-2802
shaped	-2803
▁Timer	-2804
▁activ	-2805
▁worse	-2806
gravity	-2807
ionship	-2808
ossible	-2809
▁Distra	-2810
▁Pretty	-2811
▁Repeat	-2812
▁Spaced	-2813
▁announ	-2814
▁cheesy	-2815
▁enough	-2816
▁expect	-2817
▁prefer	-2818
▁pushing	-2819
▁silence	-2820
▁success	-2821
▁Division	-2822
▁Gradients	-2823
▁currently	-2824
▁announcing	-2825
▁contribute	-2826
▁impossible	-2827
▁Distractions	-2828
▁championship	-2829
▁recommendation	-2830
18	-2831
68	-2832
af	-2833
sup	-2834
uts	-2835
ares	-2836
care	-2837
izer	-2838
pear	-2839
sion	-2840
urts	-2841
▁39?	-2842
▁79?	-2843
▁85?	-2844
▁Day	-2845
▁Fix	-2846
▁cop	-2847
▁cre	-2848
▁Role	-2849
▁fear	-2850
either	-2851
tional	-2852
▁Bring	-2853
▁Query	-2854
▁hurts	-2855
▁stats	-2856
▁value	-2857
ractice	-2858
▁create	-2859
▁solves	-2860
▁wassup	-2861
▁Momentum	-2862
▁Practice	-2863
▁preferred	-2864
▁impressive	-2865
1°	-2866
26	-2867
85	-2868
dy	-2869
lo	-2870
ton	-2871
una	-2872
xic	-2873
▁-5	-2874
▁aw	-2875
▁bi	-2876
▁pa	-2877
ange	-2878
ling	-2879
rats	-2880
rect	-2881
▁hmm	-2882
ables	-2883
ology	-2884
start	-2885
▁Easy	-2886
▁Move	-2887
▁Rely	-2888
▁Well	-2889
▁body	-2890
▁each	-2891
▁game	-2892
noying	-2893
▁Daily	-2894
▁pause	-2895
▁phone	-2896
▁ready	-2897
▁toxic	-2898
▁veget	-2899
▁Future	-2900
▁button	-2901
▁stands	-2902
▁biology	-2903
▁options	-2904
ationship	-2905
▁Repeated	-2906
▁carefully	-2907
▁vegetables	-2908
▁relationship	-2909
02	-2910
11	-2911
13	-2912
97	-2913
NN	-2914
bd	-2915
bf	-2916
bj	-2917
gic	-2918
loc	-2919
ots	-2920
say	-2921
▁4)	-2922
▁Cl	-2923
▁So	-2924
▁ac	-2925
▁vo	-2926
arts	-2927
asks	-2928
asta	-2929
ctop	-2930
cuts	-2931
ests	-2932
hock	-2933
ider	-2934
vide	-2935
▁10%	-2936
▁144	-2937
▁34?	-2938
▁88?	-2939
▁90%	-2940
▁Ans	-2941
▁But	-2942
▁Obj	-2943
▁RNN	-2944
▁mid	-2945
▁rit	-2946
board	-2947
brave	-2948
clude	-2949
ected	-2950
ostly	-2951
pears	-2952
rough	-2953
tempt	-2954
tests	-2955
▁Bold	-2956
▁Hero	-2957
▁Hint	-2958
▁Lots	-2959
▁Rest	-2960
▁find	-2961
▁guid	-2962
▁void	-2963
▁wish	-2964
action	-2965
estyle	-2966
locked	-2967
result	-2968
▁Being	-2969
▁Quest	-2970
▁Shock	-2971
▁event	-2972
▁least	-2973
▁level	-2974
▁octop	-2975
▁tasks	-2976
▁voice	-2977
emotion	-2978
podcast	-2979
▁KitKat	-2980
▁arrive	-2981
▁hearts	-2982
▁ritual	-2983
▁travel	-2984
▁Answers	-2985
▁Reality	-2986
▁Request	-2987
▁attempt	-2988
▁correct	-2989
▁finally	-2990
▁focuses	-2991
▁include	-2992
▁proceed	-2993
▁through	-2994
▁Congrats	-2995
▁Shocking	-2996
▁detected	-2997
▁guidance	-2998
▁homework	-2999
▁keyboard	-3000
▁midnight	-3001
▁stepping	-3002
▁unlocked	-3003
▁Interview	-3004
▁Objective	-3005
▁Recommend	-3006
▁expecting	-3007
▁inventory	-3008
▁octopuses	-3009
▁shortcuts	-3010
emotionally	-3011
▁production	-3012
▁validation	-3013
▁Ingredients	-3014
▁Multitasking	-3015
03	-3016
39	-3017
3°	-3018
42	-3019
47	-3020
48	-3021
59	-3022
7°	-3023
9°	-3024
fc	-3025
na	-3026
ftw	-3027
gan	-3028
rew	-3029
usy	-3030
▁3?	-3031
▁Ex	-3032
▁To	-3033
club	-3034
hear	-3035
seek	-3036
▁24?	-3037
▁37?	-3038
▁42?	-3039
▁54?	-3040
▁75?	-3041
▁For	-3042
▁Out	-3043
▁Rel	-3044
▁fac	-3045
allel	-3046
itely	-3047
▁Busy	-3048
▁grew	-3049
▁hair	-3050
▁hide	-3051
ftware	-3052
ganize	-3053
nament	-3054
nobody	-3055
▁Doing	-3056
▁breaks	-3057
▁facial	-3058
▁refuse	-3059
▁rehear	-3060
ctioning	-3061
▁Explain	-3062
▁forward	-3063
▁hardest	-3064
▁players	-3065
▁somehow	-3066
▁updates	-3067
▁Relaxing	-3068
▁organize	-3069
▁parallel	-3070
▁politely	-3071
▁software	-3072
▁Procrastin	-3073
▁tournament	-3074
▁Functioning	-3075
▁conversations	-3076
17	-3077
35	-3078
65	-3079
jk	-3080
14.	-3081
edo	-3082
gly	-3083
jkl	-3084
▁-6	-3085
▁7?	-3086
ccas	-3087
dfgh	-3088
ilar	-3089
lots	-3090
▁35?	-3091
▁40?	-3092
▁69?	-3093
▁71?	-3094
▁80?	-3095
▁83?	-3096
▁And	-3097
▁Don	-3098
▁Tok	-3099
▁att	-3100
▁hor	-3101
▁tux	-3102
▁case	-3103
▁keys	-3104
▁most	-3105
▁summ	-3106
▁tuna	-3107
▁ugly	-3108
arable	-3109
hinged	-3110
▁concl	-3111
▁hates	-3112
▁occas	-3113
dfghjkl	-3114
ionally	-3115
▁Tokens	-3116
▁horror	-3117
▁tuxedo	-3118
▁weighs	-3119
▁Prepare	-3120
▁attacks	-3121
▁similar	-3122
▁rehearse	-3123
▁summoned	-3124
▁unhinged	-3125
▁asdfghjkl	-3126
▁conclusion	-3127
▁occasionally	-3128
▁questionable	-3129
▁notifications	-3130
▁perfectionism	-3131
08	-3132
41	-3133
63	-3134
89	-3135
ba	-3136
▁—	-3137
low	-3138
pts	-3139
uff	-3140
▁5-	-3141
▁Er	-3142
▁Fa	-3143
aper	-3144
chan	-3145
▁13?	-3146
▁14?	-3147
▁15?	-3148
▁26?	-3149
▁29?	-3150
▁52?	-3151
▁74?	-3152
▁90?	-3153
▁rat	-3154
▁Mild	-3155
▁nood	-3156
▁unne	-3157
vision	-3158
▁Error	-3159
▁alone	-3160
▁fluff	-3161
▁needs	-3162
▁paper	-3163
▁saved	-3164
▁stick	-3165
cessary	-3166
chanism	-3167
vorites	-3168
▁coping	-3169
▁rather	-3170
▁matches	-3171
▁Smallest	-3172
▁concepts	-3173
▁describe	-3174
▁mornings	-3175
▁tearable	-3176
▁Favorites	-3177
▁mechanism	-3178
▁supervision	-3179
▁unnecessary	-3180
+2	-3181
52	-3182
57	-3183
62	-3184
90	-3185
ah	-3186
eb	-3187
lor	-3188
▁8?	-3189
flow	-3190
▁33?	-3191
▁46?	-3192
▁48?	-3193
▁59?	-3194
▁81?	-3195
▁82?	-3196
▁93?	-3197
▁98?	-3198
▁jog	-3199
andon	-3200
▁Dead	-3201
▁Ines	-3202
▁Maya	-3203
▁Nice	-3204
▁Noah	-3205
▁Nour	-3206
▁last	-3207
▁tack	-3208
▁color	-3209
etitive	-3210
▁talent	-3211
▁Because	-3212
▁abandon	-3213
▁brought	-3214
▁tackling	-3215
▁Deadlines	-3216
▁translate	-3217
▁competitive	-3218
22	-3219
92	-3220
99	-3221
da	-3222
gr	-3223
ia	-3224
▁👋	-3225
15.	-3226
▁5?	-3227
▁Un	-3228
ania	-3229
rets	-3230
ular	-3231
▁31?	-3232
▁53?	-3233
▁66?	-3234
▁72?	-3235
▁84?	-3236
▁86?	-3237
▁99?	-3238
▁bit	-3239
vives	-3240
▁exec	-3241
▁math	-3242
▁mind	-3243
▁slip	-3244
▁wrap	-3245
ground	-3246
ishing	-3247
▁Rania	-3248
▁beans	-3249
▁breat	-3250
▁smart	-3251
fically	-3252
▁Length	-3253
▁having	-3254
▁sequel	-3255
▁though	-3256
▁unlike	-3257
▁Summary	-3258
▁chicken	-3259
▁secrets	-3260
▁survives	-3261
▁elevators	-3262
▁execution	-3263
▁finishing	-3264
▁background	-3265
▁specifically	-3266
01	-3267
05	-3268
21	-3269
46	-3270
72	-3271
94	-3272
cf	-3273
mi	-3274
any	-3275
edi	-3276
ets	-3277
itu	-3278
min	-3279
oup	-3280
ugo	-3281
▁1.	-3282
▁9:	-3283
ache	-3284
eter	-3285
▁19?	-3286
▁25-	-3287
▁25?	-3288
▁32?	-3289
▁44?	-3290
▁50?	-3291
▁51?	-3292
▁62?	-3293
▁76?	-3294
▁77?	-3295
▁92?	-3296
▁97?	-3297
▁Sam	-3298
▁Say	-3299
▁den	-3300
grade	-3301
llets	-3302
▁123.	-3303
▁Amin	-3304
▁Hedi	-3305
▁Hugo	-3306
▁cope	-3307
▁miss	-3308
▁numb	-3309
▁soup	-3310
▁Light	-3311
▁cache	-3312
▁fixed	-3313
▁pasta	-3314
▁right	-3315
▁denial	-3316
▁habits	-3317
▁bullets	-3318
▁depends	-3319
▁persist	-3320
▁developer	-3321
06	-3322
27	-3323
69	-3324
84	-3325
86	-3326
cb	-3327
rt	-3328
50.	-3329
ada	-3330
sef	-3331
eady	-3332
gurt	-3333
ssef	-3334
what	-3335
▁12?	-3336
▁18?	-3337
▁20?	-3338
▁41?	-3339
▁45?	-3340
▁49?	-3341
▁56?	-3342
▁68?	-3343
▁89?	-3344
▁91?	-3345
▁Aya	-3346
▁bar	-3347
▁Lina	-3348
▁Make	-3349
▁dire	-3350
liable	-3351
unlike	-3352
▁Yours	-3353
▁badly	-3354
▁disap	-3355
▁shows	-3356
protein	-3357
▁Steady	-3358
▁yogurt	-3359
▁Youssef	-3360
▁concise	-3361
▁deserves	-3362
▁messages	-3363
▁direction	-3364
▁producing	-3365
%.	-3366
.’	-3367
38	-3368
51	-3369
79	-3370
80	-3371
60.	-3372
dam	-3373
ify	-3374
mar	-3375
mat	-3376
por	-3377
▁4?	-3378
face	-3379
good	-3380
▁100	-3381
▁10?	-3382
▁12.	-3383
▁21?	-3384
▁23?	-3385
▁28?	-3386
▁30?	-3387
▁51.	-3388
▁55?	-3389
▁57?	-3390
▁58?	-3391
▁eas	-3392
▁99%.	-3393
▁Adam	-3394
▁Meet	-3395
▁Omar	-3396
▁Yara	-3397
▁size	-3398
cessed	-3399
riving	-3400
▁Fares	-3401
▁Focus	-3402
▁compl	-3403
▁found	-3404
▁helps	-3405
▁patch	-3406
▁recur	-3407
▁assist	-3408
▁attend	-3409
▁podcast	-3410
▁surface	-3411
▁overflow	-3412
▁routines	-3413
▁processed	-3414
30	-3415
33	-3416
54	-3417
55	-3418
87	-3419
bb	-3420
ds	-3421
yd	-3422
}:	-3423
▁>	-3424
▁≈	-3425
80.	-3426
ath	-3427
eks	-3428
fun	-3429
lew	-3430
sim	-3431
som	-3432
udi	-3433
▁2.	-3434
▁2?	-3435
▁Mo	-3436
▁Pr	-3437
▁et	-3438
came	-3439
cept	-3440
lock	-3441
ramm	-3442
raph	-3443
ries	-3444
talk	-3445
▁17?	-3446
▁22.	-3447
▁27?	-3448
▁32.	-3449
▁43?	-3450
▁48.	-3451
▁60.	-3452
▁67?	-3453
▁69.	-3454
▁70?	-3455
▁87?	-3456
▁92.	-3457
▁94?	-3458
▁got	-3459
▁nap	-3460
▁uni	-3461
aring	-3462
class	-3463
plify	-3464
range	-3465
retch	-3466
sider	-3467
three	-3468
toast	-3469
▁Also	-3470
▁Open	-3471
▁blew	-3472
▁insp	-3473
▁page	-3474
▁unre	-3475
▁🧠🧠🧠:	-3476
agraph	-3477
ortant	-3478
puters	-3479
ydrate	-3480
ything	-3481
▁Hobby	-3482
▁Print	-3483
▁bound	-3484
▁could	-3485
▁grads	-3486
▁grows	-3487
▁inter	-3488
▁reset	-3489
▁weeks	-3490
agation	-3491
▁Unlike	-3492
▁became	-3493
▁layers	-3494
▁minute	-3495
▁unless	-3496
simplify	-3497
▁Tonight	-3498
▁breathe	-3499
▁noodles	-3500
▁setting	-3501
▁stretch	-3502
▁updated	-3503
▁Annoying	-3504
▁consider	-3505
▁distract	-3506
▁fighting	-3507
▁optimize	-3508
▁programm	-3509
▁projects	-3510
▁Computers	-3511
▁important	-3512
▁paragraph	-3513
▁everything	-3514
▁unreliable	-3515
▁ingredients	-3516
37	-3517
40	-3518
49	-3519
50	-3520
56	-3521
58	-3522
5°	-3523
70	-3524
83	-3525
91	-3526
My	-3527
NE	-3528
OR	-3529
RR	-3530
br	-3531
fb	-3532
ls	-3533
xy	-3534
’—	-3535
▁x	-3536
00.	-3537
20.	-3538
63)	-3539
agu	-3540
aim	-3541
aky	-3542
avy	-3543
but	-3544
cil	-3545
eah	-3546
ech	-3547
eek	-3548
erf	-3549
eue	-3550
fru	-3551
ged	-3552
gen	-3553
gge	-3554
gue	-3555
ila	-3556
ios	-3557
iqu	-3558
ird	-3559
ken	-3560
kip	-3561
mes	-3562
mis	-3563
obb	-3564
oot	-3565
oph	-3566
pty	-3567
rec	-3568
ris	-3569
rue	-3570
the	-3571
tun	-3572
ulk	-3573
▁5)	-3574
▁Ch	-3575
▁HR	-3576
▁av	-3577
▁ca	-3578
▁gl	-3579
▁ou	-3580
7.8°	-3581
RROR	-3582
aits	-3583
alma	-3584
alty	-3585
atus	-3586
cili	-3587
comm	-3588
coun	-3589
defe	-3590
ency	-3591
erms	-3592
etim	-3593
ever	-3594
ilos	-3595
ions	-3596
iosk	-3597
ique	-3598
kely	-3599
mean	-3600
mire	-3601
mort	-3602
oper	-3603
otto	-3604
ract	-3605
rete	-3606
rief	-3607
rist	-3608
ross	-3609
self	-3610
step	-3611
ters	-3612
tery	-3613
them	-3614
true	-3615
tune	-3616
udac	-3617
ules	-3618
ulti	-3619
week	-3620
yeah	-3621
▁(1)	-3622
▁(2)	-3623
▁(3)	-3624
▁(69	-3625
▁16?	-3626
▁38?	-3627
▁47?	-3628
▁60?	-3629
▁61?	-3630
▁63?	-3631
▁73.	-3632
▁83.	-3633
▁84.	-3634
▁Add	-3635
▁Ext	-3636
▁Hol	-3637
▁Imp	-3638
▁ONE	-3639
▁Pen	-3640
▁Ret	-3641
▁Rew	-3642
▁Sel	-3643
▁Tra	-3644
▁bat	-3645
▁dam	-3646
▁die	-3647
▁fre	-3648
▁hit	-3649
▁its	-3650
▁kit	-3651
▁lif	-3652
▁map	-3653
▁oxy	-3654
▁sel	-3655
▁war	-3656
aguen	-3657
asies	-3658
assic	-3659
brary	-3660
chill	-3661
eches	-3662
edies	-3663
endor	-3664
fault	-3665
feren	-3666
fruit	-3667
fting	-3668
illow	-3669
ingly	-3670
ively	-3671
mptom	-3672
orthy	-3673
ource	-3674
panic	-3675
poned	-3676
rence	-3677
risis	-3678
techn	-3679
unity	-3680
▁111.	-3681
▁Each	-3682
▁Fast	-3683
▁Fati	-3684
▁Find	-3685
▁Hana	-3686
▁Less	-3687
▁Loot	-3688
▁Many	-3689
▁Nada	-3690
▁Perf	-3691
▁Rice	-3692
▁Roll	-3693
▁Sara	-3694
▁Seek	-3695
▁Send	-3696
▁Sher	-3697
▁Ship	-3698
▁Talk	-3699
▁Wild	-3700
▁acts	-3701
▁asks	-3702
▁audi	-3703
▁been	-3704
▁deal	-3705
▁deep	-3706
▁desk	-3707
▁drop	-3708
▁fair	-3709
▁hats	-3710
▁hobb	-3711
▁lore	-3712
▁made	-3713
▁mild	-3714
▁myth	-3715
▁ones	-3716
▁opin	-3717
▁outs	-3718
▁plat	-3719
▁rare	-3720
▁situ	-3721
▁skip	-3722
▁smug	-3723
▁sulk	-3724
▁tame	-3725
▁weak	-3726
▁wing	-3727
Mostly	-3728
cepted	-3729
entils	-3730
etimes	-3731
ggered	-3732
ifying	-3733
ilient	-3734
mortem	-3735
mostly	-3736
oncili	-3737
porate	-3738
versal	-3739
▁Alive	-3740
▁Audac	-3741
▁Close	-3742
▁Compl	-3743
▁ERROR	-3744
▁Effic	-3745
▁Email	-3746
▁Leave	-3747
▁Leila	-3748
▁Lower	-3749
▁Movie	-3750
▁Salma	-3751
▁State	-3752
▁avail	-3753
▁awake	-3754
▁board	-3755
▁brief	-3756
▁claim	-3757
▁death	-3758
▁empty	-3759
▁etern	-3760
▁fancy	-3761
▁feats	-3762
▁flaky	-3763
▁forge	-3764
▁fully	-3765
▁gains	-3766
▁glass	-3767
▁guild	-3768
▁heavy	-3769
▁judge	-3770
▁kiosk	-3771
▁magic	-3772
▁meant	-3773
▁messy	-3774
▁meter	-3775
▁motto	-3776
▁multi	-3777
▁place	-3778
▁pride	-3779
▁queue	-3780
▁ruins	-3781
▁senti	-3782
▁shiny	-3783
▁slide	-3784
▁spell	-3785
▁stare	-3786
▁terms	-3787
▁topic	-3788
▁trade	-3789
▁weird	-3790
ilosoph	-3791
meaning	-3792
mission	-3793
operate	-3794
started	-3795
veggies	-3796
▁Change	-3797
▁Holmes	-3798
▁Likely	-3799
▁Return	-3800
▁Reward	-3801
▁Select	-3802
▁Social	-3803
▁Stacks	-3804
▁Status	-3805
▁Tragic	-3806
▁Transl	-3807
▁accord	-3808
▁across	-3809
▁admire	-3810
▁alarms	-3811
▁anthem	-3812
▁anyone	-3813
▁awaits	-3814
▁brainy	-3815
▁broken	-3816
▁calmly	-3817
▁causes	-3818
▁chance	-3819
▁cookie	-3820
▁crisis	-3821
▁damage	-3822
▁define	-3823
▁effect	-3824
▁encoun	-3825
▁errors	-3826
▁fixing	-3827
▁forged	-3828
▁format	-3829
▁gained	-3830
▁heroic	-3831
▁lesson	-3832
▁manual	-3833
▁multit	-3834
▁oxygen	-3835
▁pillow	-3836
▁polite	-3837
▁repair	-3838
▁report	-3839
▁search	-3840
▁slowly	-3841
▁spiral	-3842
▁timing	-3843
▁undefe	-3844
▁vaguen	-3845
▁vendor	-3846
▁worthy	-3847
allenges	-3848
ferences	-3849
optional	-3850
▁Classic	-3851
▁Extract	-3852
▁Fatigue	-3853
▁Grammar	-3854
▁Library	-3855
▁Meeting	-3856
▁Options	-3857
▁Outcome	-3858
▁Penalty	-3859
▁Present	-3860
▁Provide	-3861
▁Rewrite	-3862
▁Symptom	-3863
▁Warning	-3864
▁Winging	-3865
▁appears	-3866
▁backing	-3867
▁battery	-3868
▁charged	-3869
▁default	-3870
▁easiest	-3871
▁fortune	-3872
▁hobbies	-3873
▁however	-3874
▁hydrate	-3875
▁knowing	-3876
▁lifting	-3877
▁looking	-3878
▁missing	-3879
▁numbers	-3880
▁perform	-3881
▁provide	-3882
▁refuses	-3883
▁smaller	-3884
▁station	-3885
▁tourist	-3886
▁upgrade	-3887
community	-3888
ectionist	-3889
recommend	-3890
sometimes	-3891
▁Complete	-3892
▁Optional	-3893
▁Remedies	-3894
▁Rollback	-3895
▁Sherlock	-3896
▁Together	-3897
▁accepted	-3898
▁annoying	-3899
▁arriving	-3900
▁audience	-3901
▁avoiding	-3902
▁classics	-3903
▁compares	-3904
▁complete	-3905
▁concrete	-3906
▁crafting	-3907
▁finished	-3908
▁guessing	-3909
▁inspired	-3910
▁invented	-3911
▁language	-3912
▁mentally	-3913
▁movement	-3914
▁multiple	-3915
▁opinions	-3916
▁platform	-3917
▁podcasts	-3918
▁requires	-3919
▁roasting	-3920
▁silently	-3921
▁skipping	-3922
▁speeches	-3923
▁timeline	-3924
▁traveler	-3925
▁tutorial	-3926
▁Audacious	-3927
▁Efficient	-3928
▁activated	-3929
▁attending	-3930
▁available	-3931
▁calendars	-3932
▁confusion	-3933
▁cooperate	-3934
▁corporate	-3935
▁effective	-3936
▁eternally	-3937
▁fantasies	-3938
▁freestyle	-3939
▁introduce	-3940
▁lifestyle	-3941
▁multitask	-3942
▁outsource	-3943
▁philosoph	-3944
▁postponed	-3945
▁preparing	-3946
▁recipient	-3947
▁reconcili	-3948
▁resilient	-3949
▁selection	-3950
▁sentience	-3951
▁situation	-3952
▁technique	-3953
▁travelers	-3954
▁triggered	-3955
▁universal	-3956
▁unstarted	-3957
▁vagueness	-3958
technically	-3959
▁Impressive	-3960
▁Summarizer	-3961
▁accountant	-3962
▁challenges	-3963
▁clarifying	-3964
▁comforting	-3965
▁creatively	-3966
▁disappears	-3967
▁efficiency	-3968
▁encounters	-3969
▁eventually	-3970
▁postmortem	-3971
▁pretending	-3972
▁recurrence	-3973
▁repeatedly	-3974
▁searchable	-3975
▁undefeated	-3976
▁Recommended	-3977
▁Transformer	-3978
▁Translation	-3979
▁accordingly	-3980
▁compression	-3981
▁preferences	-3982
▁technically	-3983
▁intermission	-3984
▁notification	-3985
▁Perfectionism	-3986
▁documentation	-3987
▁perfectionist	-3988
▁philosophical	-3989
▁Procrastinated	-3990
▁Recommendation	-3991
▁procrastinated	-3992
▁reconciliation	-3993
▁Congratulations	-3994
09	-3995
10	-3996
20	-3997
29	-3998
32	-3999
82	-4000
my	-4001
sm	-4002
18)	-4003
56.	-4004
65)	-4005
84.	-4006
Ver	-4007
den	-4008
dew	-4009
niv	-4010
ric	-4011
via	-4012
▁6?	-4013
▁Ho	-4014
arti	-4015
chem	-4016
inue	-4017
isma	-4018
leep	-4019
omic	-4020
orts	-4021
▁27.	-4022
▁2–3	-4023
▁49.	-4024
▁65?	-4025
▁67.	-4026
▁80.	-4027
▁96?	-4028
▁Hab	-4029
▁gem	-4030
▁pop	-4031
Verse	-4032
alley	-4033
ardew	-4034
clubs	-4035
jokes	-4036
nives	-4037
smart	-4038
▁112.	-4039
▁Alex	-4040
▁Book	-4041
▁Game	-4042
▁Hail	-4043
▁Mary	-4044
▁pack	-4045
artian	-4046
illing	-4047
weight	-4048
▁Hades	-4049
▁Sleep	-4050
▁Study	-4051
▁facts	-4052
chemist	-4053
mystery	-4054
▁Atomic	-4055
▁Habits	-4056
▁Hollow	-4057
▁Knight	-4058
▁Knives	-4059
▁Spider	-4060
▁Valley	-4061
▁hidden	-4062
▁models	-4063
▁recent	-4064
▁sports	-4065
▁Friends	-4066
▁Martian	-4067
▁Project	-4068
▁Stardew	-4069
▁classes	-4070
▁classic	-4071
▁lentils	-4072
▁popular	-4073
▁charisma	-4074
▁continue	-4075
▁performs	-4076
▁Alchemist	-4077
▁activities	-4078
▁Procrastination	-4079
'?	-4080
16	-4081
24	-4082
31	-4083
45	-4084
61	-4085
74	-4086
81	-4087
96	-4088
+2=	-4089
04.	-4090
14)	-4091
26)	-4092
36.	-4093
40.	-4094
48.	-4095
64.	-4096
72.	-4097
76)	-4098
off	-4099
÷12	-4100
▁8.	-4101
▁9?	-4102
▁By	-4103
▁Yo	-4104
lict	-4105
ords	-4106
ring	-4107
▁(15	-4108
▁(34	-4109
▁102	-4110
▁17.	-4111
▁18.	-4112
▁2+2	-4113
▁22?	-4114
▁28.	-4115
▁33.	-4116
▁36?	-4117
▁42.	-4118
▁437	-4119
▁64.	-4120
▁78?	-4121
▁94.	-4122
▁96.	-4123
▁aug	-4124
▁dim	-4125
+2=11	-4126
eries	-4127
storm	-4128
words	-4129
▁-14.	-4130
▁122.	-4131
▁124.	-4132
▁125.	-4133
▁144/	-4134
▁151.	-4135
▁Test	-4136
▁kept	-4137
▁pull	-4138
▁said	-4139
▁very	-4140
ectric	-4141
erries	-4142
▁param	-4143
▁solid	-4144
▁solve	-4145
chicken	-4146
▁144÷12	-4147
▁cutoff	-4148
▁during	-4149
▁reread	-4150
▁snacks	-4151
▁augment	-4152
▁mission	-4153
▁package	-4154
▁queries	-4155
ectricity	-4156
erfitting	-4157
▁conflict	-4158
▁requests	-4159
▁tokenizer	-4160
▁brainstorm	-4161
▁similarity	-4162
▁electricity	-4163
▁augmentation	-4164
25	-4165
78	-4166
09)	-4167
30.	-4168
38.	-4169
92.	-4170
com	-4171
ear	-4172
man	-4173
base	-4174
▁(28	-4175
▁(74	-4176
▁(83	-4177
▁(86	-4178
▁11.	-4179
▁11?	-4180
▁14.	-4181
▁16.	-4182
▁199	-4183
▁21.	-4184
▁229	-4185
▁24.	-4186
▁29.	-4187
▁334	-4188
▁39.	-4189
▁45.	-4190
▁52.	-4191
▁54.	-4192
▁63.	-4193
▁73?	-4194
▁86.	-4195
▁95?	-4196
▁any	-4197
▁few	-4198
itted	-4199
paste	-4200
using	-4201
▁-12.	-4202
▁-73.	-4203
▁115.	-4204
▁130.	-4205
▁142.	-4206
▁161.	-4207
▁Type	-4208
▁poem	-4209
▁well	-4210
▁Think	-4211
▁being	-4212
▁fruit	-4213
▁stack	-4214
▁filling	-4215
▁process	-4216
▁working	-4217
▁committed	-4218
▁confusing	-4219
▁conversation	-4220
▁backpropagation	-4221
53	-4222
76	-4223
au	-4224
gn	-4225
04)	-4226
17)	-4227
25.	-4228
42)	-4229
44.	-4230
60)	-4231
81)	-4232
87)	-4233
91)	-4234
95)	-4235
eff	-4236
eld	-4237
ned	-4238
▁4.	-4239
▁He	-4240
0.0°	-4241
augh	-4242
crow	-4243
enus	-4244
give	-4245
▁(17	-4246
▁(45	-4247
▁(48	-4248
▁(53	-4249
▁(55	-4250
▁(62	-4251
▁(94	-4252
▁-2.	-4253
▁-7.	-4254
▁-8.	-4255
▁154	-4256
▁19.	-4257
▁20.	-4258
▁200	-4259
▁25.	-4260
▁26.	-4261
▁315	-4262
▁35.	-4263
▁40.	-4264
▁439	-4265
▁447	-4266
▁56.	-4267
▁62.	-4268
▁76.	-4269
▁78.	-4270
▁88.	-4271
▁97.	-4272
▁99.	-4273
▁Des	-4274
▁Rim	-4275
▁Too	-4276
▁cle	-4277
▁his	-4278
▁nat	-4279
based	-4280
stand	-4281
▁-32.	-4282
▁-48.	-4283
▁-65.	-4284
▁102.	-4285
▁106.	-4286
▁114.	-4287
▁117.	-4288
▁118.	-4289
▁120.	-4290
▁132.	-4291
▁160.	-4292
▁168.	-4293
▁fake	-4294
▁poor	-4295
▁sure	-4296
advice	-4297
coming	-4298
▁Jules	-4299
▁Venus	-4300
▁field	-4301
▁laugh	-4302
▁scare	-4303
▁style	-4304
▁144/12	-4305
▁nature	-4306
▁noodle	-4307
▁wanted	-4308
standing	-4309
▁impasta	-4310
▁regular	-4311
▁Describe	-4312
▁incoming	-4313
▁promoted	-4314
▁weakness	-4315
▁comebacks	-4316
▁scarecrow	-4317
▁outstanding	-4318
▁programmers	-4319
▁explanations	-4320
▁recommendations	-4321
+1	-4322
^2	-4323
yn	-4324
10.	-4325
11)	-4326
13)	-4327
27.	-4328
28)	-4329
31)	-4330
36)	-4331
50)	-4332
55)	-4333
61)	-4334
66)	-4335
68.	-4336
71)	-4337
75)	-4338
76.	-4339
79)	-4340
88)	-4341
94.	-4342
Ass	-4343
Bat	-4344
abf	-4345
ean	-4346
eeb	-4347
▁0.	-4348
▁7.	-4349
▁9.	-4350
▁hu	-4351
chit	-4352
gets	-4353
just	-4354
▁(08	-4355
▁(14	-4356
▁(22	-4357
▁(30	-4358
▁(43	-4359
▁(54	-4360
▁(67	-4361
▁(68	-4362
▁(77	-4363
▁(85	-4364
▁(88	-4365
▁(89	-4366
▁-3.	-4367
▁-4.	-4368
▁1+1	-4369
▁108	-4370
▁121	-4371
▁13.	-4372
▁15%	-4373
▁235	-4374
▁237	-4375
▁245	-4376
▁246	-4377
▁261	-4378
▁277	-4379
▁284	-4380
▁31.	-4381
▁335	-4382
▁353	-4383
▁37.	-4384
▁387	-4385
▁404	-4386
▁44.	-4387
▁47.	-4388
▁477	-4389
▁489	-4390
▁65.	-4391
▁72.	-4392
▁75.	-4393
▁82.	-4394
▁87.	-4395
▁90.	-4396
▁95.	-4397
▁9^2	-4398
▁big	-4399
▁gad	-4400
eanwh	-4401
▁-15.	-4402
▁-18.	-4403
▁-23.	-4404
▁-29.	-4405
▁-38.	-4406
▁-44.	-4407
▁100-	-4408
▁100.	-4409
▁113.	-4410
▁143.	-4411
▁147.	-4412
▁164.	-4413
▁176.	-4414
▁180.	-4415
▁216.	-4416
▁Call	-4417
▁Name	-4418
▁aren	-4419
▁cool	-4420
▁enab	-4421
Assist	-4422
Batman	-4423
ecture	-4424
▁corny	-4425
▁humor	-4426
solving	-4427
▁Meanwh	-4428
▁archit	-4429
▁output	-4430
▁poorly	-4431
▁worked	-4432
▁gadgets	-4433
▁showing	-4434
Assistant	-4435
▁designed	-4436
▁enabling	-4437
▁gameplay	-4438
▁Meanwhile	-4439
▁assistant	-4440
▁programming	-4441
▁architecture	-4442
0-	-4443
su	-4444
wb	-4445
,00	-4446
00)	-4447
03)	-4448
06.	-4449
08)	-4450
12.	-4451
176	-4452
20)	-4453
25)	-4454
27)	-4455
28.	-4456
30)	-4457
33.	-4458
62.	-4459
69.	-4460
78)	-4461
81.	-4462
84)	-4463
86.	-4464
90.	-4465
92)	-4466
93)	-4467
94)	-4468
954	-4469
ari	-4470
dad	-4471
dfe	-4472
fdb	-4473
ied	-4474
ign	-4475
ils	-4476
old	-4477
sub	-4478
–60	-4479
▁5.	-4480
▁6.	-4481
3.3°	-4482
9.4°	-4483
anan	-4484
appo	-4485
arer	-4486
cent	-4487
char	-4488
clud	-4489
eros	-4490
ists	-4491
mium	-4492
need	-4493
oils	-4494
rawb	-4495
year	-4496
▁(02	-4497
▁(10	-4498
▁(26	-4499
▁(32	-4500
▁(40	-4501
▁(42	-4502
▁(49	-4503
▁(56	-4504
▁(57	-4505
▁(58	-4506
▁(59	-4507
▁(64	-4508
▁(72	-4509
▁(75	-4510
▁(80	-4511
▁(81	-4512
▁(82	-4513
▁(87	-4514
▁(97	-4515
▁(98	-4516
▁(99	-4517
▁-1.	-4518
▁-9.	-4519
▁10.	-4520
▁105	-4521
▁107	-4522
▁113	-4523
▁132	-4524
▁142	-4525
▁175	-4526
▁194	-4527
▁202	-4528
▁205	-4529
▁209	-4530
▁234	-4531
▁243	-4532
▁257	-4533
▁275	-4534
▁295	-4535
▁297	-4536
▁298	-4537
▁299	-4538
▁306	-4539
▁321	-4540
▁327	-4541
▁333	-4542
▁355	-4543
▁36.	-4544
▁365	-4545
▁38.	-4546
▁381	-4547
▁390	-4548
▁399	-4549
▁430	-4550
▁46.	-4551
▁479	-4552
▁484	-4553
▁498	-4554
▁50.	-4555
▁55.	-4556
▁57.	-4557
▁58.	-4558
▁61.	-4559
▁68.	-4560
▁71.	-4561
▁77.	-4562
▁Bot	-4563
▁Und	-4564
▁pat	-4565
▁sca	-4566
,000-	-4567
arely	-4568
erday	-4569
eters	-4570
gnitu	-4571
istic	-4572
terns	-4573
▁(118	-4574
▁(648	-4575
▁-10.	-4576
▁-20.	-4577
▁-26.	-4578
▁-27.	-4579
▁-28.	-4580
▁-31.	-4581
▁-33.	-4582
▁-36.	-4583
▁-41.	-4584
▁-43.	-4585
▁-46.	-4586
▁-55.	-4587
▁103.	-4588
▁104.	-4589
▁107.	-4590
▁127.	-4591
▁129.	-4592
▁137.	-4593
▁152.	-4594
▁155.	-4595
▁163.	-4596
▁165.	-4597
▁167.	-4598
▁Back	-4599
▁Step	-4600
▁capt	-4601
▁owns	-4602
▁yest	-4603
acters	-4604
aeolog	-4605
ananas	-4606
includ	-4607
▁Batch	-4608
▁Honey	-4609
▁areas	-4610
▁clock	-4611
▁eaten	-4612
▁honey	-4613
▁plans	-4614
▁rules	-4615
▁zeros	-4616
abilize	-4617
appoint	-4618
gnitude	-4619
▁100-37	-4620
▁3,000-	-4621
▁Botany	-4622
▁around	-4623
▁assign	-4624
▁barely	-4625
▁copied	-4626
▁learns	-4627
▁number	-4628
▁scares	-4629
▁spoils	-4630
▁strawb	-4631
overflow	-4632
subwords	-4633
▁Bananas	-4634
▁against	-4635
▁berries	-4636
▁capture	-4637
▁clearer	-4638
▁descent	-4639
▁install	-4640
▁notices	-4641
▁premium	-4642
▁prevent	-4643
▁telling	-4644
including	-4645
▁Backprop	-4646
▁controls	-4647
▁converts	-4648
▁modeling	-4649
▁negative	-4650
▁patterns	-4651
▁randomly	-4652
▁sequence	-4653
aeologists	-4654
characters	-4655
▁breathing	-4656
▁efficient	-4657
▁magnitude	-4658
▁optimizer	-4659
▁overnight	-4660
▁parameter	-4661
▁realistic	-4662
▁stabilize	-4663
▁yesterday	-4664
▁disappoint	-4665
▁parameters	-4666
▁persistent	-4667
▁activations	-4668
▁Underfitting	-4669
▁strawberries	-4670
▁underfitting	-4671
archaeologists	-4672
▁stackoverflow	-4673
▁generalization	-4674
▁Backpropagation	-4675
*7	-4676
36	-4677
DP	-4678
St	-4679
io	-4680
×7	-4681
02.	-4682
05)	-4683
07)	-4684
10)	-4685
104	-4686
114	-4687
12)	-4688
16.	-4689
22)	-4690
24.	-4691
29)	-4692
32)	-4693
34)	-4694
344	-4695
35)	-4696
35.	-4697
38)	-4698
40)	-4699
42.	-4700
43)	-4701
51)	-4702
56)	-4703
58)	-4704
59.	-4705
62)	-4706
64)	-4707
65.	-4708
67.	-4709
70)	-4710
73)	-4711
78.	-4712
80)	-4713
819	-4714
83)	-4715
85)	-4716
89)	-4717
95.	-4718
96.	-4719
97.	-4720
975	-4721
98)	-4722
99)	-4723
aae	-4724
abb	-4725
aca	-4726
aed	-4727
aef	-4728
bae	-4729
bbc	-4730
bdb	-4731
bed	-4732
bfe	-4733
cad	-4734
cbc	-4735
cbd	-4736
dec	-4737
ebc	-4738
fcd	-4739
nce	-4740
not	-4741
▁jo	-4742
1.0°	-4743
1.1°	-4744
6.1°	-4745
6.7°	-4746
7.2°	-4747
7.4°	-4748
738)	-4749
8.4°	-4750
8.6°	-4751
864)	-4752
938)	-4753
agin	-4754
arks	-4755
cipl	-4756
esis	-4757
hind	-4758
noon	-4759
osyn	-4760
rees	-4761
rict	-4762
tuna	-4763
urns	-4764
very	-4765
▁(00	-4766
▁(06	-4767
▁(07	-4768
▁(09	-4769
▁(16	-4770
▁(25	-4771
▁(27	-4772
▁(29	-4773
▁(33	-4774
▁(36	-4775
▁(37	-4776
▁(38	-4777
▁(41	-4778
▁(44	-4779
▁(50	-4780
▁(52	-4781
▁(60	-4782
▁(76	-4783
▁(78	-4784
▁(90	-4785
▁(96	-4786
▁112	-4787
▁123	-4788
▁127	-4789
▁133	-4790
▁135	-4791
▁136	-4792
▁138	-4793
▁147	-4794
▁15.	-4795
▁150	-4796
▁155	-4797
▁161	-4798
▁167	-4799
▁169	-4800
▁190	-4801
▁195	-4802
▁206	-4803
▁214	-4804
▁247	-4805
▁260	-4806
▁262	-4807
▁270	-4808
▁271	-4809
▁274	-4810
▁282	-4811
▁292	-4812
▁305	-4813
▁316	-4814
▁318	-4815
▁34.	-4816
▁340	-4817
▁342	-4818
▁356	-4819
▁359	-4820
▁363	-4821
▁375	-4822
▁376	-4823
▁420	-4824
▁434	-4825
▁440	-4826
▁451	-4827
▁453	-4828
▁463	-4829
▁488	-4830
▁66.	-4831
▁70.	-4832
▁74.	-4833
▁85.	-4834
▁98.	-4835
▁UDP	-4836
▁bra	-4837
▁car	-4838
▁low	-4839
ardio	-4840
creat	-4841
glish	-4842
teeth	-4843
▁(104	-4844
▁(244	-4845
▁(634	-4846
▁(942	-4847
▁-19.	-4848
▁-21.	-4849
▁-24.	-4850
▁-37.	-4851
▁-45.	-4852
▁-53.	-4853
▁-59.	-4854
▁-66.	-4855
▁-71.	-4856
▁-74.	-4857
▁-78.	-4858
▁101.	-4859
▁109.	-4860
▁119.	-4861
▁12*7	-4862
▁121.	-4863
▁128.	-4864
▁12×7	-4865
▁131.	-4866
▁138.	-4867
▁141.	-4868
▁144.	-4869
▁145.	-4870
▁150.	-4871
▁162.	-4872
▁170.	-4873
▁172.	-4874
▁175.	-4875
▁178.	-4876
▁181.	-4877
▁183.	-4878
▁195.	-4879
▁260.	-4880
▁271.	-4881
▁420.	-4882
▁900.	-4883
▁910.	-4884
▁Even	-4885
▁Once	-4886
▁They	-4887
▁safe	-4888
▁year	-4889
osynth	-4890
▁1056.	-4891
▁1728.	-4892
▁45–60	-4893
▁Turns	-4894
▁limit	-4895
▁snack	-4896
▁trees	-4897
aginary	-4898
cipline	-4899
improve	-4900
▁Nature	-4901
▁Sharks	-4902
▁behind	-4903
▁cardio	-4904
▁planet	-4905
▁really	-4906
▁strict	-4907
creative	-4908
▁bravery	-4909
▁carries	-4910
▁existed	-4911
▁jogging	-4912
▁nightly	-4913
▁shouldn	-4914
▁daylight	-4915
▁lowering	-4916
▁thoughts	-4917
osynthesis	-4918
▁afternoon	-4919
▁imaginary	-4920
▁regularly	-4921
improvement	-4922
▁assignment	-4923
▁collection	-4924
professional	-4925
▁photosynthesis	-4926
▁procrastinates	-4927
}?	-4928
02)	-4929
034	-4930
05.	-4931
06)	-4932
07.	-4933
08.	-4934
083	-4935
100	-4936
107	-4937
112	-4938
12?	-4939
13.	-4940
15)	-4941
156	-4942
16)	-4943
18.	-4944
188	-4945
19)	-4946
193	-4947
23)	-4948
24)	-4949
26.	-4950
293	-4951
298	-4952
318	-4953
319	-4954
32.	-4955
33)	-4956
34.	-4957
350	-4958
353	-4959
362	-4960
367	-4961
37.	-4962
39.	-4963
407	-4964
44)	-4965
442	-4966
449	-4967
45)	-4968
46)	-4969
465	-4970
47)	-4971
479	-4972
49)	-4973
518	-4974
52)	-4975
53)	-4976
53.	-4977
54)	-4978
547	-4979
55.	-4980
567	-4981
59)	-4982
602	-4983
61.	-4984
630	-4985
67)	-4986
675	-4987
676	-4988
70.	-4989
705	-4990
72)	-4991
73.	-4992
793	-4993
82)	-4994
82.	-4995
87.	-4996
88.	-4997
89.	-4998
90)	-4999
904	-5000
91.	-5001
939	-5002
960	-5003
97)	-5004
971	-5005
98.	-5006
999	-5007
Con	-5008
abd	-5009
acb	-5010
aea	-5011
aec	-5012
apy	-5013
arb	-5014
bab	-5015
baf	-5016
bcc	-5017
bdc	-5018
bee	-5019
bfb	-5020
bic	-5021
bil	-5022
box	-5023
cac	-5024
cdd	-5025
con	-5026
dcf	-5027
ddf	-5028
dea	-5029
dfb	-5030
eab	-5031
ebb	-5032
eca	-5033
ecc	-5034
eda	-5035
edd	-5036
eee	-5037
efb	-5038
faa	-5039
fcc	-5040
fda	-5041
fea	-5042
ier	-5043
lay	-5044
ote	-5045
pea	-5046
pes	-5047
tax	-5048
ump	-5049
ven	-5050
vit	-5051
ywh	-5052
−37	-5053
▁PC	-5054
▁Sw	-5055
▁es	-5056
▁wr	-5057
0.6°	-5058
040)	-5059
041)	-5060
106)	-5061
123)	-5062
130)	-5063
1577	-5064
2.2°	-5065
2.6°	-5066
2.8°	-5067
212)	-5068
267)	-5069
276)	-5070
3.19	-5071
309)	-5072
339)	-5073
390)	-5074
4.14	-5075
4.2°	-5076
4.4°	-5077
4.63	-5078
440)	-5079
462)	-5080
5.6°	-5081
5.8°	-5082
6.57	-5083
604)	-5084
620)	-5085
633)	-5086
635)	-5087
646)	-5088
6543	-5089
7.0°	-5090
7.64	-5091
7.93	-5092
731)	-5093
763)	-5094
8.2°	-5095
814)	-5096
820)	-5097
862)	-5098
876)	-5099
881)	-5100
894)	-5101
9.6°	-5102
aaaf	-5103
bble	-5104
bile	-5105
caff	-5106
cape	-5107
carb	-5108
dadb	-5109
ebad	-5110
elic	-5111
ging	-5112
main	-5113
mpor	-5114
onsi	-5115
oser	-5116
reek	-5117
rest	-5118
sequ	-5119
urvi	-5120
▁(01	-5121
▁(04	-5122
▁(11	-5123
▁(18	-5124
▁(19	-5125
▁(23	-5126
▁(35	-5127
▁(39	-5128
▁(47	-5129
▁(51	-5130
▁(63	-5131
▁(70	-5132
▁(73	-5133
▁(91	-5134
▁(92	-5135
▁-5.	-5136
▁104	-5137
▁10°	-5138
▁114	-5139
▁118	-5140
▁124	-5141
▁139	-5142
▁140	-5143
▁149	-5144
▁152	-5145
▁153	-5146
▁160	-5147
▁163	-5148
▁168	-5149
▁174	-5150
▁180	-5151
▁181	-5152
▁184	-5153
▁185	-5154
▁192	-5155
▁198	-5156
▁201	-5157
▁204	-5158
▁207	-5159
▁208	-5160
▁219	-5161
▁221	-5162
▁222	-5163
▁224	-5164
▁225	-5165
▁226	-5166
▁228	-5167
▁23.	-5168
▁238	-5169
▁239	-5170
▁242	-5171
▁244	-5172
▁259	-5173
▁267	-5174
▁272	-5175
▁278	-5176
▁280	-5177
▁283	-5178
▁286	-5179
▁294	-5180
▁300	-5181
▁313	-5182
▁314	-5183
▁324	-5184
▁337	-5185
▁339	-5186
▁348	-5187
▁349	-5188
▁369	-5189
▁370	-5190
▁371	-5191
▁378	-5192
▁384	-5193
▁385	-5194
▁392	-5195
▁401	-5196
▁402	-5197
▁405	-5198
▁409	-5199
▁410	-5200
▁411	-5201
▁413	-5202
▁414	-5203
▁415	-5204
▁416	-5205
▁422	-5206
▁423	-5207
▁424	-5208
▁425	-5209
▁428	-5210
▁43.	-5211
▁431	-5212
▁432	-5213
▁433	-5214
▁436	-5215
▁442	-5216
▁446	-5217
▁448	-5218
▁455	-5219
▁456	-5220
▁457	-5221
▁459	-5222
▁466	-5223
▁467	-5224
▁468	-5225
▁473	-5226
▁478	-5227
▁481	-5228
▁485	-5229
▁486	-5230
▁491	-5231
▁492	-5232
▁494	-5233
▁497	-5234
▁500	-5235
▁53.	-5236
▁81.	-5237
▁89.	-5238
▁91.	-5239
▁93.	-5240
▁All	-5241
▁syn	-5242
9754)	-5243
Confu	-5244
alian	-5245
anish	-5246
arian	-5247
arily	-5248
asual	-5249
beans	-5250
caffe	-5251
erapy	-5252
erman	-5253
gnity	-5254
iment	-5255
itten	-5256
laySt	-5257
rabic	-5258
rench	-5259
types	-5260
udget	-5261
▁(004	-5262
▁(035	-5263
▁(079	-5264
▁(207	-5265
▁(222	-5266
▁(264	-5267
▁(273	-5268
▁(279	-5269
▁(334	-5270
▁(339	-5271
▁(359	-5272
▁(367	-5273
▁(388	-5274
▁(397	-5275
▁(403	-5276
▁(462	-5277
▁(477	-5278
▁(503	-5279
▁(539	-5280
▁(556	-5281
▁(668	-5282
▁(685	-5283
▁(739	-5284
▁(762	-5285
▁(841	-5286
▁(883	-5287
▁(934	-5288
▁(985	-5289
▁-13.	-5290
▁-16.	-5291
▁-25.	-5292
▁-34.	-5293
▁-35.	-5294
▁-42.	-5295
▁-47.	-5296
▁-50.	-5297
▁-54.	-5298
▁-56.	-5299
▁-57.	-5300
▁-60.	-5301
▁-63.	-5302
▁-64.	-5303
▁-72.	-5304
▁-75.	-5305
▁-79.	-5306
▁-91.	-5307
▁105.	-5308
▁126.	-5309
▁132°	-5310
▁134.	-5311
▁136.	-5312
▁139.	-5313
▁140°	-5314
▁148.	-5315
▁149.	-5316
▁159.	-5317
▁169.	-5318
▁175°	-5319
▁179.	-5320
▁182.	-5321
▁184.	-5322
▁185.	-5323
▁190.	-5324
▁197.	-5325
▁202.	-5326
▁204.	-5327
▁208°	-5328
▁211.	-5329
▁213.	-5330
▁246°	-5331
▁265.	-5332
▁268.	-5333
▁288.	-5334
▁296.	-5335
▁298°	-5336
▁305.	-5337
▁312.	-5338
▁336.	-5339
▁337°	-5340
▁352.	-5341
▁378.	-5342
▁385.	-5343
▁399.	-5344
▁410°	-5345
▁440.	-5346
▁450.	-5347
▁455.	-5348
▁457°	-5349
▁474.	-5350
▁504.	-5351
▁559.	-5352
▁560.	-5353
▁577.	-5354
▁580.	-5355
▁594.	-5356
▁612.	-5357
▁680.	-5358
▁696.	-5359
▁720.	-5360
▁782.	-5361
▁798.	-5362
▁884.	-5363
▁High	-5364
▁Xbox	-5365
▁liar	-5366
▁live	-5367
▁nuts	-5368
▁play	-5369
▁redu	-5370
▁vari	-5371
▁🧠🧠🧠?	-5372
formal	-5373
inated	-5374
mainly	-5375
rested	-5376
ywhere	-5377
▁(5059	-5378
▁(6481	-5379
▁(8442	-5380
▁1020.	-5381
▁1050.	-5382
▁1248.	-5383
▁1305.	-5384
▁1350.	-5385
▁1530.	-5386
▁1536.	-5387
▁1584.	-5388
▁1848.	-5389
▁1950.	-5390
▁2100.	-5391
▁2184.	-5392
▁2581.	-5393
▁3640.	-5394
▁3773.	-5395
▁5184.	-5396
▁94.80	-5397
▁Debug	-5398
▁Delic	-5399
▁Greek	-5400
▁Survi	-5401
▁Would	-5402
▁clean	-5403
▁count	-5404
▁invit	-5405
▁quote	-5406
▁taste	-5407
▁trace	-5408
ctively	-5409
ization	-5410
onsibil	-5411
venture	-5412
▁100−37	-5413
▁PlaySt	-5414
▁Switch	-5415
▁assump	-5416
▁called	-5417
▁closer	-5418
▁easier	-5419
▁escape	-5420
▁mobile	-5421
▁pebble	-5422
▁prompt	-5423
▁safely	-5424
▁stable	-5425
▁starts	-5426
▁syntax	-5427
▁tempor	-5428
getarian	-5429
▁144/12?	-5430
▁consequ	-5431
▁dignity	-5432
▁english	-5433
▁killing	-5434
▁respect	-5435
▁starter	-5436
▁therapy	-5437
▁written	-5438
Confusion	-5439
▁Meetings	-5440
▁Thriving	-5441
▁changing	-5442
▁checking	-5443
▁optional	-5444
▁readable	-5445
▁reducing	-5446
▁reliable	-5447
▁stupidly	-5448
▁variable	-5449
▁Delicious	-5450
▁Surviving	-5451
▁disappear	-5452
▁recursion	-5453
▁scheduled	-5454
caffeinated	-5455
▁compliment	-5456
▁discipline	-5457
▁everywhere	-5458
onsibilities	-5459
▁PlayStation	-5460
▁recommended	-5461
▁reproducing	-5462
▁temporarily	-5463
▁consequences	-5464
▁expectations	-5465
▁regularization	-5466
.)	-5467
PC	-5468
PU	-5469
di	-5470
ex	-5471
hc	-5472
hu	-5473
oz	-5474
yr	-5475
008	-5476
016	-5477
027	-5478
038	-5479
095	-5480
111	-5481
123	-5482
171	-5483
19.	-5484
194	-5485
200	-5486
243	-5487
248	-5488
258	-5489
275	-5490
287	-5491
340	-5492
342	-5493
355	-5494
37)	-5495
371	-5496
37?	-5497
423	-5498
43.	-5499
kp	-5500
.).	-5501
121	-5502
158	-5503
431	-5504
433	-5505
467	-5506
474	-5507
48)	-5508
500	-5509
52.	-5510
526	-5511
54.	-5512
545	-5513
570	-5514
573	-5515
580	-5516
605	-5517
626	-5518
636	-5519
646	-5520
660	-5521
666	-5522
669	-5523
674	-5524
678	-5525
683	-5526
691	-5527
702	-5528
74.	-5529
756	-5530
768	-5531
77.	-5532
772	-5533
828	-5534
83.	-5535
846	-5536
85.	-5537
858	-5538
859	-5539
861	-5540
872	-5541
953	-5542
958	-5543
978	-5544
980	-5545
Dis	-5546
Not	-5547
Pom	-5548
aad	-5549
aba	-5550
abc	-5551
acc	-5552
adb	-5553
afa	-5554
ang	-5555
ank	-5556
atb	-5557
bad	-5558
bbd	-5559
bbe	-5560
bde	-5561
bfa	-5562
bff	-5563
bin	-5564
cbe	-5565
cca	-5566
ccd	-5567
cce	-5568
cea	-5569
ceb	-5570
cec	-5571
ced	-5572
cho	-5573
dab	-5574
dcc	-5575
dce	-5576
dde	-5577
dff	-5578
dow	-5579
dri	-5580
ecb	-5581
ece	-5582
edb	-5583
edc	-5584
edf	-5585
edy	-5586
eec	-5587
elt	-5588
erc	-5589
fab	-5590
fbc	-5591
fce	-5592
fcf	-5593
fde	-5594
fed	-5595
ffa	-5596
ffc	-5597
ffd	-5598
fff	-5599
013	-5600
180	-5601
192	-5602
299	-5603
41)	-5604
438	-5605
698	-5606
710	-5607
bec	-5608
bef	-5609
caa	-5610
cbf	-5611
daf	-5612
dca	-5613
eac	-5614
fca	-5615
hiz	-5616
icy	-5617
iet	-5618
ips	-5619
mal	-5620
mel	-5621
mob	-5622
non	-5623
ons	-5624
oro	-5625
oze	-5626
pis	-5627
pol	-5628
rel	-5629
sal	-5630
sts	-5631
yst	-5632
zen	-5633
▁1:	-5634
▁2:	-5635
▁2‐	-5636
▁3:	-5637
▁4:	-5638
▁4°	-5639
▁5°	-5640
▁8°	-5641
▁Af	-5642
▁Bu	-5643
▁En	-5644
▁ML	-5645
▁Ve	-5646
▁bl	-5647
'...	-5648
0.19	-5649
0.46	-5650
0.80	-5651
0.85	-5652
006)	-5653
0067	-5654
036)	-5655
049)	-5656
0528	-5657
061)	-5658
0619	-5659
0644	-5660
066)	-5661
072)	-5662
075)	-5663
0753	-5664
0791	-5665
087)	-5666
0872	-5667
096)	-5668
1.39	-5669
1.46	-5670
1.66	-5671
1.70	-5672
107)	-5673
110)	-5674
1112	-5675
126)	-5676
133)	-5677
134)	-5678
137)	-5679
138)	-5680
1449	-5681
147)	-5682
1484	-5683
1532	-5684
1552	-5685
159)	-5686
164)	-5687
173)	-5688
1748	-5689
175)	-5690
1882	-5691
2.02	-5692
2.0°	-5693
2.46	-5694
2215	-5695
2221	-5696
223)	-5697
234)	-5698
262)	-5699
015	-5700
096	-5701
11.	-5702
143	-5703
150	-5704
152	-5705
159	-5706
177	-5707
315	-5708
453	-5709
514	-5710
57)	-5711
637	-5712
914	-5713
967	-5714
bdf	-5715
pus	-5716
0057	-5717
018)	-5718
0795	-5719
1774	-5720
1875	-5721
2169	-5722
269)	-5723
272)	-5724
2867	-5725
290)	-5726
3.06	-5727
3.28	-5728
3.4°	-5729
3.72	-5730
3.97	-5731
307)	-5732
308)	-5733
3368	-5734
341)	-5735
3447	-5736
3589	-5737
385)	-5738
389)	-5739
3901	-5740
3953	-5741
396)	-5742
399)	-5743
4.0°	-5744
4.15	-5745
4.69	-5746
411)	-5747
433)	-5748
439)	-5749
443)	-5750
444)	-5751
4451	-5752
454)	-5753
4543	-5754
460)	-5755
473)	-5756
475)	-5757
478)	-5758
484)	-5759
492)	-5760
4939	-5761
5.2°	-5762
5.48	-5763
5.72	-5764
5.89	-5765
5.90	-5766
503)	-5767
508)	-5768
518)	-5769
5182	-5770
523)	-5771
525)	-5772
5278	-5773
5407	-5774
544)	-5775
5667	-5776
591)	-5777
594)	-5778
6.04	-5779
6.0°	-5780
6.11	-5781
6.27	-5782
6.38	-5783
6.4°	-5784
6.50	-5785
6.6°	-5786
6.74	-5787
6.80	-5788
6.81	-5789
6.94	-5790
600)	-5791
6000	-5792
6052	-5793
617)	-5794
6273	-5795
628)	-5796
652)	-5797
661)	-5798
662)	-5799
01.	-5800
17.	-5801
197	-5802
22.	-5803
244	-5804
259	-5805
368	-5806
46.	-5807
47.	-5808
499	-5809
57.	-5810
571	-5811
897	-5812
937	-5813
952	-5814
efa	-5815
fef	-5816
0.38	-5817
0.68	-5818
097)	-5819
148.	-5820
177)	-5821
181)	-5822
2.71	-5823
3.0°	-5824
3.15	-5825
4835	-5826
582)	-5827
666)	-5828
6702	-5829
686)	-5830
696)	-5831
7.52	-5832
7.97	-5833
709)	-5834
7097	-5835
7108	-5836
730)	-5837
7325	-5838
737)	-5839
745)	-5840
747)	-5841
7527	-5842
754)	-5843
765)	-5844
777)	-5845
797)	-5846
8.0°	-5847
8.23	-5848
8.55	-5849
8.61	-5850
810)	-5851
8406	-5852
8411	-5853
8493	-5854
850)	-5855
853)	-5856
859)	-5857
884)	-5858
888)	-5859
889)	-5860
8898	-5861
8944	-5862
9.2°	-5863
9069	-5864
925)	-5865
957)	-5866
964)	-5867
968)	-5868
9809	-5869
aace	-5870
abfc	-5871
abor	-5872
acaf	-5873
adca	-5874
aecd	-5875
aint	-5876
alth	-5877
ards	-5878
ashc	-5879
bace	-5880
bada	-5881
bcdf	-5882
becd	-5883
beee	-5884
bfef	-5885
brea	-5886
cadd	-5887
cade	-5888
cbff	-5889
cccf	-5890
ceac	-5891
cong	-5892
dace	-5893
ddfe	-5894
eabb	-5895
eabf	-5896
ecce	-5897
eccf	-5898
edad	-5899
127	-5900
292	-5901
477	-5902
609	-5903
74)	-5904
75.	-5905
821	-5906
935	-5907
cfe	-5908
efe	-5909
1.45	-5910
140)	-5911
155.	-5912
2802	-5913
3.2°	-5914
3924	-5915
466)	-5916
5.21	-5917
572)	-5918
7.6°	-5919
705)	-5920
8.8°	-5921
873)	-5922
9.51	-5923
923)	-5924
aaef	-5925
edca	-5926
eedb	-5927
efbe	-5928
effb	-5929
fade	-5930
fbab	-5931
ffcb	-5932
fits	-5933
heck	-5934
high	-5935
iate	-5936
ices	-5937
ides	-5938
ived	-5939
ligh	-5940
load	-5941
omor	-5942
ores	-5943
orry	-5944
oses	-5945
raid	-5946
reck	-5947
sess	-5948
sity	-5949
vies	-5950
zero	-5951
▁(03	-5952
▁(05	-5953
▁(20	-5954
▁(21	-5955
▁(31	-5956
▁(46	-5957
▁(61	-5958
▁(66	-5959
▁-6.	-5960
▁106	-5961
▁109	-5962
▁117	-5963
▁11°	-5964
▁137	-5965
▁141	-5966
▁162	-5967
▁172	-5968
▁179	-5969
▁197	-5970
▁213	-5971
▁223	-5972
▁231	-5973
▁248	-5974
▁252	-5975
▁253	-5976
▁25°	-5977
▁25–	-5978
▁273	-5979
▁281	-5980
▁285	-5981
▁289	-5982
▁29°	-5983
▁30.	-5984
▁309	-5985
▁331	-5986
▁338	-5987
▁344	-5988
▁379	-5989
▁380	-5990
▁388	-5991
▁398	-5992
▁403	-5993
▁41.	-5994
▁417	-5995
▁421	-5996
▁43°	-5997
▁454	-5998
▁470	-5999
025	-6000
120	-6001
286	-6002
39)	-6003
69)	-6004
eef	-6005
fae	-6006
1618	-6007
168)	-6008
3.77	-6009
3.8°	-6010
6460	-6011
7.74	-6012
7178	-6013
7598	-6014
8.72	-6015
867)	-6016
cbfb	-6017
cdfb	-6018
sole	-6019
▁(13	-6020
▁(71	-6021
▁(79	-6022
▁187	-6023
▁189	-6024
▁220	-6025
▁232	-6026
▁279	-6027
▁351	-6028
▁367	-6029
▁391	-6030
▁426	-6031
▁42°	-6032
▁438	-6033
▁472	-6034
▁474	-6035
▁476	-6036
▁482	-6037
▁50°	-6038
▁54°	-6039
▁59.	-6040
▁60°	-6041
▁76°	-6042
▁79.	-6043
▁81°	-6044
▁90°	-6045
▁Cat	-6046
▁GPU	-6047
▁Who	-6048
▁awk	-6049
▁din	-6050
▁etc	-6051
▁lyr	-6052
▁mar	-6053
▁red	-6054
▁sar	-6055
▁sip	-6056
▁six	-6057
▁sno	-6058
▁spr	-6059
▁tit	-6060
▁via	-6061
0132)	-6062
0203)	-6063
0292)	-6064
0349)	-6065
0513)	-6066
0845)	-6067
0876)	-6068
1008)	-6069
1127)	-6070
14.2°	-6071
14.92	-6072
1569)	-6073
1723)	-6074
1725)	-6075
2435)	-6076
2825)	-6077
2844)	-6078
3494)	-6079
3622)	-6080
3671)	-6081
4255)	-6082
4496)	-6083
4655)	-6084
4834)	-6085
4938)	-6086
4966)	-6087
5103)	-6088
5263)	-6089
5674)	-6090
5747)	-6091
6279)	-6092
6460)	-6093
6480)	-6094
6650)	-6095
6668)	-6096
6755)	-6097
6763)	-6098
6764)	-6099
012	-6100
418	-6101
489	-6102
918	-6103
920	-6104
dbc	-6105
dbd	-6106
dbf	-6107
1.2°	-6108
125)	-6109
127)	-6110
5714	-6111
7501	-6112
782)	-6113
ddda	-6114
dfdb	-6115
▁41°	-6116
▁460	-6117
▁51°	-6118
▁52°	-6119
▁62°	-6120
▁63°	-6121
▁68°	-6122
▁78°	-6123
▁82°	-6124
▁84°	-6125
▁87°	-6126
▁93°	-6127
4185)	-6128
6260)	-6129
6828)	-6130
7050)	-6131
7318)	-6132
7508)	-6133
7696)	-6134
7754)	-6135
7963)	-6136
8360)	-6137
8461)	-6138
8528)	-6139
8738)	-6140
8812)	-6141
8850)	-6142
9473)	-6143
95.70	-6144
9548)	-6145
97.90	-6146
9712)	-6147
abfba	-6148
bably	-6149
bedae	-6150
befff	-6151
chips	-6152
cused	-6153
eadfe	-6154
effbe	-6155
efffb	-6156
fcfda	-6157
great	-6158
icked	-6159
ident	-6160
iring	-6161
locks	-6162
melet	-6163
never	-6164
oints	-6165
oodie	-6166
ority	-6167
osing	-6168
ounts	-6169
power	-6170
umber	-6171
uracy	-6172
veral	-6173
verse	-6174
▁(010	-6175
▁(088	-6176
▁(095	-6177
▁(099	-6178
▁(107	-6179
▁(111	-6180
▁(128	-6181
▁(129	-6182
▁(130	-6183
▁(150	-6184
▁(165	-6185
▁(187	-6186
▁(189	-6187
▁(197	-6188
▁(205	-6189
▁(208	-6190
▁(228	-6191
▁(240	-6192
▁(281	-6193
▁(290	-6194
▁(315	-6195
▁(324	-6196
▁(374	-6197
▁(382	-6198
▁(423	-6199
045	-6200
079	-6201
469	-6202
608	-6203
670	-6204
704	-6205
732	-6206
735	-6207
881	-6208
884	-6209
888	-6210
959	-6211
aeb	-6212
aee	-6213
bcd	-6214
bcf	-6215
cdc	-6216
eea	-6217
008)	-6218
019)	-6219
038)	-6220
077)	-6221
1.07	-6222
1.6°	-6223
1127	-6224
2751	-6225
4.6°	-6226
4.73	-6227
5659	-6228
6.44	-6229
603)	-6230
607)	-6231
609)	-6232
649)	-6233
6491	-6234
677)	-6235
7.07	-6236
7732	-6237
8.73	-6238
880)	-6239
887)	-6240
8954	-6241
929)	-6242
951)	-6243
955)	-6244
bcfe	-6245
3038)	-6246
5556)	-6247
7019)	-6248
7209)	-6249
9514)	-6250
Pomod	-6251
▁(073	-6252
▁(093	-6253
▁(195	-6254
▁(288	-6255
▁(432	-6256
▁(437	-6257
▁(447	-6258
▁(454	-6259
▁(460	-6260
▁(461	-6261
▁(465	-6262
▁(467	-6263
▁(473	-6264
▁(475	-6265
▁(487	-6266
▁(496	-6267
▁(507	-6268
▁(513	-6269
▁(517	-6270
▁(519	-6271
▁(520	-6272
▁(535	-6273
▁(554	-6274
▁(567	-6275
▁(569	-6276
▁(578	-6277
▁(590	-6278
▁(593	-6279
▁(623	-6280
▁(631	-6281
▁(641	-6282
▁(657	-6283
▁(659	-6284
▁(662	-6285
▁(665	-6286
▁(673	-6287
▁(684	-6288
▁(694	-6289
▁(698	-6290
▁(703	-6291
▁(707	-6292
▁(712	-6293
▁(720	-6294
▁(735	-6295
▁(759	-6296
▁(767	-6297
▁(791	-6298
▁(798	-6299
166	-6300
233	-6301
235	-6302
419	-6303
577	-6304
642	-6305
665	-6306
682	-6307
684	-6308
723	-6309
728	-6310
752	-6311
987	-6312
aaf	-6313
afc	-6314
cda	-6315
cfd	-6316
1.19	-6317
1.43	-6318
2.93	-6319
238)	-6320
282)	-6321
285)	-6322
3.23	-6323
3.75	-6324
3.98	-6325
346)	-6326
4.77	-6327
431)	-6328
5.4°	-6329
5.66	-6330
6.34	-6331
6.43	-6332
6.98	-6333
664)	-6334
667)	-6335
6771	-6336
7.68	-6337
712)	-6338
8.10	-6339
9.28	-6340
933)	-6341
936)	-6342
dcbf	-6343
1384)	-6344
8040)	-6345
▁(068	-6346
▁(071	-6347
▁(164	-6348
▁(234	-6349
▁(243	-6350
▁(271	-6351
▁(275	-6352
▁(319	-6353
▁(364	-6354
▁(464	-6355
▁(568	-6356
▁(619	-6357
▁(800	-6358
▁(808	-6359
▁(829	-6360
▁(831	-6361
▁(834	-6362
▁(848	-6363
▁(853	-6364
▁(873	-6365
▁(877	-6366
▁(890	-6367
▁(912	-6368
▁(915	-6369
▁(928	-6370
▁(929	-6371
▁(948	-6372
▁(962	-6373
▁(971	-6374
▁(975	-6375
▁(980	-6376
▁(990	-6377
▁(991	-6378
▁(992	-6379
▁-11.	-6380
▁-17.	-6381
▁-22.	-6382
▁-30.	-6383
▁-39.	-6384
▁-61.	-6385
▁-62.	-6386
▁-67.	-6387
▁-70.	-6388
▁-76.	-6389
▁-77.	-6390
▁-82.	-6391
▁100°	-6392
▁106°	-6393
▁108.	-6394
▁109°	-6395
▁110.	-6396
▁112°	-6397
▁113°	-6398
▁116.	-6399
020	-6400
136	-6401
165	-6402
170	-6403
178	-6404
179	-6405
247	-6406
297	-6407
363	-6408
391	-6409
420	-6410
826	-6411
850	-6412
851	-6413
902	-6414
bbf	-6415
fbd	-6416
fbf	-6417
0.03	-6418
024)	-6419
026)	-6420
1.03	-6421
1304	-6422
136)	-6423
172)	-6424
268)	-6425
3.13	-6426
3.35	-6427
3.42	-6428
358)	-6429
3948	-6430
397)	-6431
404)	-6432
421)	-6433
424)	-6434
5.47	-6435
5170	-6436
597)	-6437
6.59	-6438
6.97	-6439
6178	-6440
658)	-6441
7.81	-6442
8.54	-6443
8.9°	-6444
833)	-6445
836)	-6446
854)	-6447
aafc	-6448
afac	-6449
2477)	-6450
7557)	-6451
8191)	-6452
9130)	-6453
▁(235	-6454
▁(342	-6455
▁(413	-6456
▁(558	-6457
▁(702	-6458
▁(813	-6459
▁(826	-6460
▁(897	-6461
▁-51.	-6462
▁-52.	-6463
▁-58.	-6464
▁117°	-6465
▁123°	-6466
▁133.	-6467
▁133°	-6468
▁135.	-6469
▁136°	-6470
▁137°	-6471
▁138°	-6472
▁140.	-6473
▁141°	-6474
▁146.	-6475
▁157.	-6476
▁162°	-6477
▁166.	-6478
▁167°	-6479
▁169°	-6480
▁172°	-6481
▁173.	-6482
▁174.	-6483
▁179°	-6484
▁187°	-6485
▁189°	-6486
▁197°	-6487
▁198.	-6488
▁199°	-6489
▁200.	-6490
▁200?	-6491
▁203.	-6492
▁206°	-6493
▁207.	-6494
▁213°	-6495
▁214.	-6496
▁219.	-6497
▁220°	-6498
▁223°	-6499
010	-6500
080	-6501
201	-6502
206	-6503
257	-6504
408	-6505
538	-6506
541	-6507
552	-6508
572	-6509
579	-6510
584	-6511
631	-6512
708	-6513
789	-6514
949	-6515
963	-6516
052)	-6517
053)	-6518
063)	-6519
086)	-6520
1.72	-6521
224)	-6522
278)	-6523
3.01	-6524
3.46	-6525
3.63	-6526
410)	-6527
413)	-6528
416)	-6529
467)	-6530
527)	-6531
5297	-6532
7.84	-6533
722)	-6534
841)	-6535
863)	-6536
9.08	-6537
9.90	-6538
902)	-6539
903)	-6540
909)	-6541
9459	-6542
946)	-6543
9569	-6544
9572	-6545
995)	-6546
dada	-6547
huge	-6548
2738)	-6549
7082)	-6550
7897)	-6551
▁(021	-6552
▁(046	-6553
▁(227	-6554
▁(401	-6555
▁(463	-6556
▁(489	-6557
▁(494	-6558
▁(572	-6559
▁(589	-6560
▁(592	-6561
▁(594	-6562
▁(799	-6563
▁(838	-6564
▁(872	-6565
▁(905	-6566
▁(999	-6567
▁224°	-6568
▁225.	-6569
▁228.	-6570
▁231.	-6571
▁231°	-6572
▁232°	-6573
▁234.	-6574
▁235°	-6575
▁237.	-6576
▁237°	-6577
▁240.	-6578
▁240°	-6579
▁244.	-6580
▁245°	-6581
▁247°	-6582
▁248°	-6583
▁252°	-6584
▁253.	-6585
▁253°	-6586
▁260°	-6587
▁264.	-6588
▁266.	-6589
▁270.	-6590
▁270°	-6591
▁271°	-6592
▁273°	-6593
▁277°	-6594
▁279°	-6595
▁281°	-6596
▁284°	-6597
▁285°	-6598
▁286.	-6599
530	-6600
809	-6601
879	-6602
0.36	-6603
0087	-6604
103)	-6605
2.87	-6606
201)	-6607
2418	-6608
2459	-6609
248)	-6610
297)	-6611
3.16	-6612
329)	-6613
337)	-6614
377)	-6615
405)	-6616
4915	-6617
499)	-6618
5.33	-6619
5106	-6620
557)	-6621
558)	-6622
559)	-6623
6.51	-6624
7.70	-6625
7.83	-6626
9.37	-6627
9.49	-6628
9.56	-6629
9.80	-6630
910)	-6631
bbbd	-6632
fbae	-6633
mato	-6634
2618)	-6635
4449)	-6636
60.42	-6637
7165)	-6638
7565)	-6639
8803)	-6640
9350)	-6641
udied	-6642
▁(045	-6643
▁(116	-6644
▁(254	-6645
▁(283	-6646
▁(331	-6647
▁(854	-6648
▁-86.	-6649
▁195°	-6650
▁2.20	-6651
▁2.27	-6652
▁289°	-6653
▁292°	-6654
▁294.	-6655
▁3.22	-6656
▁300.	-6657
▁301.	-6658
▁305°	-6659
▁308.	-6660
▁309°	-6661
▁315.	-6662
▁316°	-6663
▁331°	-6664
▁334°	-6665
▁335°	-6666
▁338°	-6667
▁340°	-6668
▁344°	-6669
▁348.	-6670
▁351.	-6671
▁351°	-6672
▁353°	-6673
▁355°	-6674
▁356°	-6675
▁359°	-6676
▁360.	-6677
▁363°	-6678
▁367°	-6679
▁372.	-6680
▁375°	-6681
▁376°	-6682
▁379°	-6683
▁380°	-6684
▁384.	-6685
▁387°	-6686
▁388°	-6687
▁390.	-6688
▁391°	-6689
▁398°	-6690
▁403°	-6691
▁416.	-6692
▁417°	-6693
▁421°	-6694
▁422°	-6695
▁426°	-6696
▁434°	-6697
▁438°	-6698
▁439°	-6699
2.81	-6700
2983	-6701
816)	-6702
969)	-6703
1471)	-6704
1595)	-6705
2843)	-6706
3817)	-6707
4381)	-6708
4388)	-6709
6843)	-6710
6966)	-6711
8455)	-6712
9842)	-6713
awned	-6714
cbbed	-6715
▁(278	-6716
▁(396	-6717
▁(445	-6718
▁(678	-6719
▁(996	-6720
▁440°	-6721
▁451.	-6722
▁451°	-6723
▁453°	-6724
▁454°	-6725
▁456.	-6726
▁460°	-6727
▁463°	-6728
▁470°	-6729
▁472°	-6730
▁474°	-6731
▁476.	-6732
▁476°	-6733
▁477°	-6734
▁482°	-6735
▁484°	-6736
▁488°	-6737
▁5.0°	-6738
▁510.	-6739
▁528.	-6740
▁540.	-6741
▁544.	-6742
▁550.	-6743
▁552.	-6744
▁558.	-6745
▁570.	-6746
▁576.	-6747
▁585.	-6748
▁590.	-6749
▁595.	-6750
▁6.1°	-6751
▁600.	-6752
▁609.	-6753
▁630.	-6754
▁646.	-6755
▁675.	-6756
▁684.	-6757
▁7.26	-6758
▁713.	-6759
▁729.	-6760
▁735.	-6761
▁760.	-6762
▁767.	-6763
▁770.	-6764
▁780.	-6765
▁781.	-6766
▁783.	-6767
▁795.	-6768
▁8.05	-6769
▁8.82	-6770
▁805.	-6771
▁806.	-6772
▁858.	-6773
▁869.	-6774
▁888.	-6775
▁9.32	-6776
▁930.	-6777
▁936.	-6778
▁948.	-6779
▁957.	-6780
▁969.	-6781
▁972.	-6782
▁975.	-6783
▁990.	-6784
▁996.	-6785
▁Most	-6786
▁Stay	-6787
▁Work	-6788
▁club	-6789
▁copy	-6790
▁cure	-6791
▁dang	-6792
▁edit	-6793
▁effe	-6794
▁file	-6795
▁firm	-6796
▁food	-6797
▁hack	-6798
▁kara	-6799
2005	-6800
3444	-6801
baeb	-6802
bbcb	-6803
dfea	-6804
0294)	-6805
0730)	-6806
0770)	-6807
1045)	-6808
1149)	-6809
1493)	-6810
2534)	-6811
2698)	-6812
6021)	-6813
6400)	-6814
69.24	-6815
7138)	-6816
7727)	-6817
8543)	-6818
9520)	-6819
9538)	-6820
9541)	-6821
9858)	-6822
Start	-6823
aeabb	-6824
cbcdb	-6825
▁lack	-6826
▁line	-6827
▁pred	-6828
▁recs	-6829
▁rule	-6830
▁syst	-6831
▁unbe	-6832
01206)	-6833
03106)	-6834
03646)	-6835
05286)	-6836
08727)	-6837
10432)	-6838
12168)	-6839
15779)	-6840
18756)	-6841
22210)	-6842
22212)	-6843
25900)	-6844
28027)	-6845
39241)	-6846
42181)	-6847
46828)	-6848
47914)	-6849
50099)	-6850
56592)	-6851
56678)	-6852
58091)	-6853
61635)	-6854
62733)	-6855
65436)	-6856
65437)	-6857
70979)	-6858
72391)	-6859
73600)	-6860
75982)	-6861
76075)	-6862
77864)	-6863
81942)	-6864
84068)	-6865
84646)	-6866
88841)	-6867
89798)	-6868
93514)	-6869
98722)	-6870
astrop	-6871
atbelt	-6872
athons	-6873
bfaedf	-6874
breakp	-6875
budget	-6876
cadfab	-6877
castic	-6878
casual	-6879
driven	-6880
effffa	-6881
erests	-6882
friend	-6883
hizing	-6884
ickpea	-6885
mobile	-6886
peared	-6887
pisode	-6888
rebase	-6889
rectly	-6890
▁(0090	-6891
▁(0217	-6892
▁(0362	-6893
▁(0794	-6894
▁(0807	-6895
▁(1040	-6896
▁(1067	-6897
▁(1083	-6898
▁(1150	-6899
5083	-6900
7676	-6901
ebee	-6902
0342)	-6903
4070)	-6904
4604)	-6905
5477)	-6906
5679)	-6907
5894)	-6908
6715)	-6909
7440)	-6910
7935)	-6911
7937)	-6912
8938)	-6913
edeee	-6914
fcafd	-6915
▁314°	-6916
08390)	-6917
26440)	-6918
29836)	-6919
31876)	-6920
32738)	-6921
43763)	-6922
52783)	-6923
90425)	-6924
cafffb	-6925
▁(0791	-6926
▁(0923	-6927
▁(1293	-6928
▁(1412	-6929
▁(1542	-6930
▁(1630	-6931
▁(1919	-6932
▁(1943	-6933
▁(1975	-6934
▁(2010	-6935
▁(2077	-6936
▁(2164	-6937
▁(2264	-6938
▁(2306	-6939
▁(2602	-6940
▁(2665	-6941
▁(2814	-6942
▁(3339	-6943
▁(3466	-6944
▁(3494	-6945
▁(3502	-6946
▁(3704	-6947
▁(3772	-6948
▁(3958	-6949
▁(4023	-6950
▁(4025	-6951
▁(4168	-6952
▁(4259	-6953
▁(4303	-6954
▁(4344	-6955
▁(4468	-6956
▁(4567	-6957
▁(4683	-6958
▁(4741	-6959
▁(4969	-6960
▁(5097	-6961
▁(5121	-6962
▁(5311	-6963
▁(5353	-6964
▁(5398	-6965
▁(5566	-6966
▁(5723	-6967
▁(5841	-6968
▁(5942	-6969
▁(5998	-6970
▁(6016	-6971
▁(6204	-6972
▁(6302	-6973
▁(6340	-6974
▁(6573	-6975
▁(6742	-6976
▁(6803	-6977
▁(6834	-6978
▁(7093	-6979
▁(7200	-6980
▁(7266	-6981
▁(7691	-6982
▁(7833	-6983
▁(8158	-6984
▁(8195	-6985
▁(8307	-6986
▁(8365	-6987
▁(8395	-6988
▁(8416	-6989
▁(8675	-6990
▁(8823	-6991
▁(8861	-6992
▁(8866	-6993
▁(9176	-6994
▁(9355	-6995
▁(9438	-6996
▁(9449	-6997
▁(9674	-6998
▁(9904	-6999
1716	-7000
4545	-7001
bdeb	-7002
bffb	-7003
down	-7004
push	-7005
2173)	-7006
3154)	-7007
7025)	-7008
7269)	-7009
9159)	-7010
ebaba	-7011
▁-83.	-7012
▁echo	-7013
▁indi	-7014
00574)	-7015
00674)	-7016
07959)	-7017
14497)	-7018
15520)	-7019
17487)	-7020
21066)	-7021
24865)	-7022
33685)	-7023
34477)	-7024
35892)	-7025
39011)	-7026
42072)	-7027
44510)	-7028
57171)	-7029
91435)	-7030
96717)	-7031
comedy	-7032
except	-7033
polite	-7034
▁(0111	-7035
▁(0646	-7036
▁(1342	-7037
▁(3180	-7038
▁(4624	-7039
▁(5031	-7040
▁(5036	-7041
▁(5453	-7042
▁(6854	-7043
▁(8636	-7044
▁(9939	-7045
▁(9954	-7046
▁-3.9°	-7047
▁10.56	-7048
▁1012.	-7049
▁1024.	-7050
▁1064.	-7051
▁1083.	-7052
▁1088.	-7053
▁11.02	-7054
▁11.18	-7055
▁11.1°	-7056
▁1104.	-7057
▁1139.	-7058
▁1200.	-7059
▁1204.	-7060
▁1216.	-7061
▁1224.	-7062
▁1225.	-7063
▁1260.	-7064
▁1274.	-7065
▁1276.	-7066
▁13.05	-7067
▁13.15	-7068
▁1302.	-7069
▁1320.	-7070
▁1323.	-7071
▁1326.	-7072
▁1344.	-7073
▁1357.	-7074
▁1368.	-7075
▁1378.	-7076
▁1386.	-7077
▁14.48	-7078
▁14.97	-7079
▁1400.	-7080
▁1404.	-7081
▁1406.	-7082
▁1440.	-7083
▁1449.	-7084
▁1455.	-7085
▁1456.	-7086
▁1472.	-7087
▁1479.	-7088
▁1480.	-7089
▁1494.	-7090
▁1500.	-7091
▁1501.	-7092
▁1520.	-7093
▁1552.	-7094
▁1568.	-7095
▁1581.	-7096
▁1586.	-7097
▁1587.	-7098
▁1617.	-7099
2523)	-7100
5594)	-7101
5859)	-7102
abfcb	-7103
03572)	-7104
06668)	-7105
24418)	-7106
45103)	-7107
60004)	-7108
64496)	-7109
73258)	-7110
75270)	-7111
77745)	-7112
84932)	-7113
90693)	-7114
▁(0197	-7115
▁(0373	-7116
▁(2120	-7117
▁(2233	-7118
▁(2684	-7119
▁(2920	-7120
▁(3608	-7121
▁(4655	-7122
▁1155.	-7123
▁1638.	-7124
▁1643.	-7125
▁1652.	-7126
▁1653.	-7127
▁1672.	-7128
▁1680.	-7129
▁1694.	-7130
▁17.2°	-7131
▁17.70	-7132
▁1702.	-7133
▁1710.	-7134
▁1716.	-7135
▁1725.	-7136
▁1767.	-7137
▁1769.	-7138
▁1792.	-7139
▁18.02	-7140
▁1820.	-7141
▁1860.	-7142
▁1869.	-7143
▁1870.	-7144
▁1872.	-7145
▁1886.	-7146
▁1896.	-7147
▁19.31	-7148
▁19.50	-7149
▁19.84	-7150
▁1909.	-7151
▁1914.	-7152
▁1917.	-7153
▁1936.	-7154
▁1938.	-7155
▁1944.	-7156
▁1960.	-7157
▁1961.	-7158
▁2025.	-7159
▁2040.	-7160
▁2054.	-7161
▁2058.	-7162
▁2072.	-7163
▁2106.	-7164
▁2133.	-7165
▁2139.	-7166
▁2142.	-7167
▁2176.	-7168
▁22.53	-7169
▁2220.	-7170
▁2233.	-7171
▁2241.	-7172
▁2262.	-7173
▁2296.	-7174
▁2392.	-7175
▁24.04	-7176
▁24.23	-7177
▁24.4°	-7178
▁2407.	-7179
▁2418.	-7180
▁2442.	-7181
▁2450.	-7182
▁2460.	-7183
▁2465.	-7184
▁2480.	-7185
▁25.48	-7186
▁2516.	-7187
▁2538.	-7188
▁2553.	-7189
▁2562.	-7190
▁2580.	-7191
▁2590.	-7192
▁2592.	-7193
▁25–50	-7194
▁26.72	-7195
▁2604.	-7196
▁2613.	-7197
▁2623.	-7198
▁2635.	-7199
39480)	-7200
40866)	-7201
▁2664.	-7202
▁2695.	-7203
▁2697.	-7204
▁27.22	-7205
▁27.2°	-7206
▁27.34	-7207
▁27.8°	-7208
▁2706.	-7209
▁2730.	-7210
▁2738.	-7211
▁2739.	-7212
▁2747.	-7213
▁2790.	-7214
▁28.9°	-7215
▁2813.	-7216
▁2829.	-7217
▁2835.	-7218
▁2838.	-7219
▁2867.	-7220
▁2880.	-7221
▁2888.	-7222
▁2907.	-7223
▁2960.	-7224
▁3034.	-7225
▁3078.	-7226
▁30–60	-7227
▁31.07	-7228
▁3102.	-7229
▁3120.	-7230
▁3127.	-7231
▁3136.	-7232
▁3150.	-7233
▁3154.	-7234
▁3160.	-7235
▁3168.	-7236
▁3174.	-7237
▁3185.	-7238
▁3192.	-7239
▁3196.	-7240
▁32.19	-7241
▁32.2°	-7242
▁32.66	-7243
▁3201.	-7244
▁3204.	-7245
▁3230.	-7246
▁3268.	-7247
▁3285.	-7248
▁33.55	-7249
▁33.9°	-7250
▁3300.	-7251
▁3332.	-7252
▁3337.	-7253
▁3350.	-7254
▁3360.	-7255
▁3380.	-7256
▁3381.	-7257
▁3384.	-7258
▁3397.	-7259
▁34.47	-7260
▁3420.	-7261
▁3422.	-7262
▁3456.	-7263
▁3465.	-7264
▁3472.	-7265
▁3510.	-7266
▁3525.	-7267
▁3555.	-7268
▁3564.	-7269
▁3588.	-7270
▁36.66	-7271
▁3600.	-7272
▁3608.	-7273
▁3626.	-7274
▁3627.	-7275
▁3648.	-7276
▁3672.	-7277
▁3692.	-7278
▁37.01	-7279
▁3724.	-7280
▁3726.	-7281
▁3740.	-7282
▁3744.	-7283
▁3800.	-7284
▁3808.	-7285
▁3825.	-7286
▁3835.	-7287
▁3895.	-7288
▁39.2°	-7289
▁3904.	-7290
▁3920.	-7291
▁3948.	-7292
▁3960.	-7293
▁3969.	-7294
▁3977.	-7295
▁40.23	-7296
▁4042.	-7297
▁4056.	-7298
▁4080.	-7299
▁41.0°	-7300
▁41.1°	-7301
▁4176.	-7302
▁4182.	-7303
▁42.87	-7304
▁42.8°	-7305
▁4209.	-7306
▁4212.	-7307
▁4221.	-7308
▁4230.	-7309
▁4233.	-7310
▁4240.	-7311
▁4250.	-7312
▁4316.	-7313
▁4350.	-7314
▁4356.	-7315
▁4399.	-7316
▁44.12	-7317
▁44.4°	-7318
▁4437.	-7319
▁4462.	-7320
▁4464.	-7321
▁4465.	-7322
▁4484.	-7323
▁45.0°	-7324
▁4524.	-7325
▁4544.	-7326
▁4559.	-7327
▁46.27	-7328
▁4650.	-7329
▁4656.	-7330
▁4672.	-7331
▁4698.	-7332
▁47.2°	-7333
▁47.63	-7334
▁4736.	-7335
▁4760.	-7336
▁48.28	-7337
▁48.50	-7338
▁48.53	-7339
▁48.99	-7340
▁4806.	-7341
▁4838.	-7342
▁4845.	-7343
▁4876.	-7344
▁4891.	-7345
▁4896.	-7346
▁4898.	-7347
▁49.89	-7348
▁4940.	-7349
▁4950.	-7350
▁4959.	-7351
▁4980.	-7352
▁4992.	-7353
▁4998.	-7354
▁50.0°	-7355
▁50.33	-7356
▁50.6°	-7357
▁5022.	-7358
▁5032.	-7359
▁5040.	-7360
▁5084.	-7361
▁5092.	-7362
▁51.26	-7363
▁51.71	-7364
▁51.8°	-7365
▁5148.	-7366
▁5187.	-7367
▁52.20	-7368
▁52.91	-7369
▁5265.	-7370
▁5346.	-7371
▁5394.	-7372
▁54.88	-7373
▁5418.	-7374
▁5427.	-7375
▁5460.	-7376
▁5467.	-7377
▁5478.	-7378
▁55.6°	-7379
▁5544.	-7380
▁5548.	-7381
▁5550.	-7382
▁5590.	-7383
▁56.54	-7384
▁5607.	-7385
▁5612.	-7386
▁5664.	-7387
▁5694.	-7388
▁57.79	-7389
▁57.8°	-7390
▁5727.	-7391
▁5762.	-7392
▁58.9°	-7393
▁5856.	-7394
▁5859.	-7395
▁5880.	-7396
▁5913.	-7397
▁5915.	-7398
▁5934.	-7399
▁5964.	-7400
▁60.0°	-7401
▁60.89	-7402
▁6004.	-7403
▁6020.	-7404
▁6030.	-7405
▁6075.	-7406
▁61.23	-7407
▁61.73	-7408
▁6204.	-7409
▁6237.	-7410
▁63.38	-7411
▁63.93	-7412
▁6300.	-7413
▁6336.	-7414
▁6438.	-7415
▁6460.	-7416
▁65.32	-7417
▁6510.	-7418
▁6512.	-7419
▁6528.	-7420
▁6557.	-7421
▁6570.	-7422
▁6600.	-7423
▁6640.	-7424
▁6696.	-7425
▁6764.	-7426
▁6776.	-7427
▁6789.	-7428
▁6794.	-7429
▁68.95	-7430
▁6825.	-7431
▁69.20	-7432
▁69.40	-7433
▁69.59	-7434
▁6942.	-7435
▁7047.	-7436
▁7055.	-7437
▁7161.	-7438
▁7189.	-7439
▁72.2°	-7440
▁72.57	-7441
▁7280.	-7442
▁73.03	-7443
▁7310.	-7444
▁7380.	-7445
▁74.03	-7446
▁7448.	-7447
▁75.75	-7448
▁7533.	-7449
▁76.66	-7450
▁7636.	-7451
▁77.05	-7452
▁77.8°	-7453
▁7742.	-7454
▁78.91	-7455
▁78.93	-7456
▁7832.	-7457
▁79.4°	-7458
▁7968.	-7459
▁7990.	-7460
▁80.47	-7461
▁8019.	-7462
▁8064.	-7463
▁82.64	-7464
▁8372.	-7465
▁84.2°	-7466
▁84.51	-7467
▁8415.	-7468
▁85.75	-7469
▁8536.	-7470
▁8544.	-7471
▁8554.	-7472
▁86.1°	-7473
▁87.09	-7474
▁8730.	-7475
▁8811.	-7476
▁8827.	-7477
▁8910.	-7478
▁90.26	-7479
▁92.58	-7480
▁92.59	-7481
▁92.8°	-7482
▁92.99	-7483
▁93.21	-7484
▁95.69	-7485
▁97.07	-7486
▁97.8°	-7487
▁99.34	-7488
▁After	-7489
▁Build	-7490
▁Check	-7491
▁Roses	-7492
▁Tired	-7493
▁Tomor	-7494
▁blank	-7495
▁brick	-7496
▁exerc	-7497
▁faint	-7498
▁finds	-7499
▁force	-7500
▁given	-7501
▁goals	-7502
▁hours	-7503
▁inten	-7504
▁moves	-7505
▁quiet	-7506
▁robot	-7507
▁roomm	-7508
▁sauce	-7509
▁seven	-7510
▁sorry	-7511
▁spicy	-7512
▁spree	-7513
▁stage	-7514
▁thank	-7515
▁walks	-7516
▁waste	-7517
▁wreck	-7518
aborate	-7519
consist	-7520
console	-7521
erously	-7522
lentils	-7523
lighter	-7524
mediate	-7525
shorter	-7526
▁(00676	-7527
▁(01618	-7528
▁(02867	-7529
▁(03444	-7530
▁(04835	-7531
▁(08944	-7532
▁(10644	-7533
▁(10859	-7534
▁(12005	-7535
▁(14292	-7536
▁(15872	-7537
▁(21882	-7538
▁(24441	-7539
▁(25194	-7540
▁(27371	-7541
▁(31577	-7542
▁(32169	-7543
▁(38835	-7544
▁(40389	-7545
▁(42459	-7546
▁(43176	-7547
▁(44080	-7548
▁(47352	-7549
▁(49479	-7550
▁(51767	-7551
▁(54340	-7552
▁(59057	-7553
▁(60619	-7554
▁(62418	-7555
▁(62881	-7556
▁(63400	-7557
▁(63403	-7558
▁(66818	-7559
▁(66864	-7560
▁(67108	-7561
▁(71304	-7562
▁(73123	-7563
▁(76052	-7564
▁(76391	-7565
▁(76460	-7566
▁(77642	-7567
▁(78350	-7568
▁(82215	-7569
▁(82977	-7570
▁(89433	-7571
▁(93401	-7572
▁(93402	-7573
▁(94226	-7574
▁(94915	-7575
▁(95106	-7576
▁(95182	-7577
▁(95714	-7578
▁(98571	-7579
▁(99207	-7580
▁(99991	-7581
▁-12.2°	-7582
▁-13.3°	-7583
▁100.6°	-7584
▁101.28	-7585
▁101.41	-7586
▁102.51	-7587
▁103.00	-7588
▁103.42	-7589
▁106.14	-7590
▁106.1°	-7591
▁106.59	-7592
▁107.50	-7593
▁107.6°	-7594
▁109.77	-7595
▁110.6°	-7596
▁111.04	-7597
▁111.13	-7598
▁111.1°	-7599
▁111.85	-7600
▁112.04	-7601
▁112.65	-7602
▁113.9°	-7603
▁114.26	-7604
▁114.95	-7605
▁115.6°	-7606
▁116.57	-7607
▁117.48	-7608
▁118.39	-7609
▁118.3°	-7610
▁118.9°	-7611
▁119.4°	-7612
▁121.11	-7613
▁122.0°	-7614
▁122.2°	-7615
▁122.47	-7616
▁122.92	-7617
▁123.65	-7618
▁123.8°	-7619
▁124.90	-7620
▁125.52	-7621
▁125.64	-7622
▁126.76	-7623
▁126.7°	-7624
▁129.2°	-7625
▁129.73	-7626
▁129.87	-7627
▁132.2°	-7628
▁132.8°	-7629
▁136.1°	-7630
▁137.94	-7631
▁138.80	-7632
▁138.89	-7633
▁140.0°	-7634
▁	-7635
e	-7636
t	-7637
o	-7638
i	-7639
a	-7640
n	-7641
s	-7642
r	-7643
l	-7644
u	-7645
h	-7646
d	-7647
c	-7648
y	-7649
m	-7650
.	-7651
g	-7652
p	-7653
f	-7654
w	-7655
b	-7656
,	-7657
k	-7658
v	-7659
’	-7660
:	-7661
I	-7662
'	-7663
j	-7664
Y	-7665
q	-7666
x	-7667
?	-7668
T	-7669
-	-7670
L	-7671
1	-7672
)	-7673
A	-7674
(	-7675
3	-7676
N	-7677
4	-7678
2	-7679
5	-7680
9	-7681
R	-7682
7	-7683
8	-7684
6	-7685
O	-7686
—	-7687
S	-7688
0	-7689
W	-7690
H	-7691
/	-7692
z	-7693
P	-7694
B	-7695
=	-7696
+	-7697
G	-7698
;	-7699
*	-7700
M	-7701
D	-7702
F	-7703
C	-7704
‘	-7705
‐	-7706
Q	-7707
π	-7708
°	-7709
→	-7710
E	-7711
J	-7712
K	-7713
V	-7714
U	-7715
!	-7716
“	-7717
”	-7718
🧠	-7719
🙂	-7720
%	-7721
–	-7722
😅	-7723
X	-7724
{	-7725
}	-7726
👋	-7727
>	-7728
≈	-7729
÷	-7730
^	-7731
×	-7732
−	-7733
·	-7734
